{"1780": "新高", "3600": "丰富", "5817": "封面", "34": "个", "7038": "不好意思", "319": "儿子", "11946": "惊动", "8221": "监管者", "4740": "常用", "4724": "会员", "15531": "财", "529": "差", "7013": "难受", "8500": "万千", "11878": "城墙", "1318": "另", "13474": "倪萍", "1961": "展示", "10982": "实际上", "12992": "弯路", "7055": "净利", "15479": "英才", "5071": "25万", "0": "<unk>", "7724": "不准", "7720": "三月", "863": "降", "4159": "当代", "509": "受", "3167": "一块", "5685": "不成", "4763": "空降", "10": "你", "2376": "富豪", "2800": "新剧", "769": "真是", "7325": "野外", "10715": "管家", "175": "这样", "4967": "相约", "1023": "拼", "10707": "秋月", "3813": "5月份", "16094": "忌惮", "5734": "村落", "2": "，", "1364": "传说", "10417": "韩雪", "15817": "佣金", "3459": "南宁", "554": "操作", "8496": "H5", "217": "企业", "8065": "连云港", "4270": "盛大", "39": "要", "10995": "干活", "3948": "特种兵", "372": "穿", "668": "更新", "4009": "不大", "871": "武汉", "9092": "替身", "3186": "潮", "1": "<pad>", "13": "”", "2226": "单", "2381": "材料", "1333": "夏天", "15339": "湿人", "3": "？", "7611": "惊讶", "20": "怎么", "15513": "要价", "2329": "抄袭", "2779": "规则", "14519": "牛魔", "9339": "张学良", "12267": "下路", "16978": "墓葬", "3175": "富士康", "16542": "金华", "14806": "170万", "4": "的", "4037": "江", "4144": "】", "10435": "1300", "16149": "挂证", "22": "会", "15": "吗", "13679": "忍无可忍", "5": "！", "3363": "开通", "1833": "经验", "4574": "潍坊", "892": "居然", "10603": "抵制", "12835": "交出", "1976": "刘德华", "3346": "终结", "9570": "加满", "425": "长", "15431": "紫霞", "1145": "造型", "16265": "涉军", "52": "哪些", "806": "同", "706": "令", "11410": "妈祖", "2432": "实体", "3905": "怀念", "13739": "政党", "4209": "港", "2860": "每次", "11243": "魔方", "30": "《", "919": "强大", "4161": "抗日", "112": "时", "16594": "飙", "1171": "伊拉克", "310": "普京", "14063": "5L", "6478": "偏", "748": "发票", "171": "特朗普", "3051": "高清", "10102": "高晓松", "13601": "大屠杀", "17572": "袁泉", "4376": "碰", "6": "：", "10054": "谴责", "16": "在", "7853": "绝密", "3343": "瘦", "16064": "年老", "9": "不", "965": "联合国", "3804": "茅台", "7886": "16年", "671": "亚冠", "886": "值", "2782": "车品", "398": "猛龙", "6719": "阳台", "7": "了", "7186": "Daraz", "53": "一个", "11335": "农资", "3030": "嫌弃", "720": "谈", "9000": "写字楼", "14035": "魔力", "463": "因为", "12986": "建功", "15746": "python", "1209": "(", "6159": "成人", "2728": "惨遭", "16225": "正义点", "16068": "开具", "43": "新", "5751": "良好", "11794": "书院", "1668": "掉", "249": "家", "3127": "小龙虾", "45": "中", "11864": "右手", "8": "是", "11648": "茶园", "1847": "调查", "9282": "劳动", "1389": "百度", "3662": "暖心", "50": "多", "264": "最后", "16146": "拨款", "8139": "墓地", "314": "故事", "11": "有", "3877": "联", "346": "花", "15071": "多元", "1261": "遭遇", "9976": "条款", "799": "作品", "13698": "战死", "1421": "对联", "17153": "感知", "1933": "提醒", "16032": "家校", "2747": "大盘", "11193": "车友", "12237": "5分", "12676": "词语", "15197": "抓获", "3754": "毁", "8958": "10号", "158": "旅游", "683": "拒绝", "4003": "鼓励", "1732": "电动车", "3588": "遭到", "12347": "同志", "12319": "制胜", "8888": "第十一", "21": "为什么", "16220": "桑巴", "714": "言论", "8063": "这点", "1741": "组", "1136": "绝对", "14710": "透镜", "360": "正式", "7814": "毅称", "16208": "松韵", "1596": "东决", "12": "“", "836": "票", "58": "去", "2450": "涨停", "11537": "期望", "17752": "龙门", "7426": "戒", "192": "起", "14943": "体育界", "12341": "变盘", "24": "人", "1505": "一鸣", "1928": "暨", "14": "一", "2315": "西游记", "131": "怎么样", "7033": "一对一", "752": "迎来", "6094": "资管", "4531": "高产", "1467": "完", "2358": "堡垒", "17": "如何", "894": "销售", "12885": "匈牙利", "10511": "单反", "18": "什么", "9416": "看上去", "252": "原因", "14963": "僵持", "729": "能源", "54": "与", "4217": "绝不", "15512": "装台", "3537": "备战", "13796": "求购", "9310": "备上", "7168": "通讯", "90": "再", "9904": "客服", "4174": "身穿", "134": "英雄", "2893": "人间", "11509": "推送", "19": "最", "7661": "省会", "5078": "乐园", "13086": "欺骗", "1048": "正", "7747": "古巨基", "877": "每天", "15950": "四中", "5268": "完整", "299": "开始", "811": "应", "1302": "片", "1896": "振兴", "707": "拥有", "10332": "甲午", "17111": "张本", "5617": "宣誓", "2484": "CEO", "7246": "对战", "12458": "慈禧", "1416": "签约", "23": "和", "14294": "威廉", "11551": "步车", "403": "涨", "11263": "CS35", "16841": "全天", "3187": "神话", "4833": "遇难", "16412": "脱欧", "2498": "规定", "4742": "强化", "110": "看待", "3550": "素颜", "4023": "征收", "4519": "粮食", "13875": "糊涂", "25": "中国", "983": "但是", "12030": "毒品", "3780": "出新", "847": "法国", "14401": "提及", "555": "服务", "10694": "白天", "6786": "工信部", "14590": "精确", "380": "体验", "7761": "填", "3013": "股权", "7164": "认定", "26": "都", "16739": "不可不", "3815": "个性", "17560": "虞姬", "1565": "绿", "96": "三", "9054": "尝鲜", "12615": "立体", "13842": "盗墓", "6315": "硬件", "790": "小时", "4350": "同步", "12109": "红唇", "16722": "一役", "28": "对", "6376": "地面", "5197": "小龙女", "3430": "探索", "4975": "这项", "604": "赢", "12906": "同名", "27": "被", "6322": "落地价", "340": "终于", "525": "了解", "1547": "炒股", "1246": "最高", "17519": "自由度", "528": "装备", "7299": "科研", "29": "》", "6646": "往往", "3112": "驾驶证", "7135": "特性", "876": "必须", "8544": "可否", "644": "世界杯", "49": "就", "9725": "私下", "3888": "不然", "1301": "学会", "31": "这", "1463": "引", "2118": "在家", "16207": "杭", "2230": "对方", "13787": "此地", "14396": "掉到", "17014": "奇书", "2770": "引进", "1144": "球", "738": "母亲", "5862": "般", "57": "手机", "17118": "强迫症", "3752": "替代", "2614": "过来", "32": "能", "6277": "强调", "990": "回来", "4616": "定性", "12513": "期末", "584": "一直", "4110": "压", "922": "豪车", "8595": "数千", "1969": "外援", "497": "产品", "12831": "二十四", "3419": "全款", "14099": "下单", "361": "DNF", "305": "因", "1789": "酒", "4235": "下班", "1411": "利率", "6764": "叛军", "16023": "宗师", "731": "上课", "1369": "业绩", "1105": "巨头", "51": "让", "2781": "身上", "16223": "欧皇", "6341": "600万", "4208": "海口", "1704": "大量", "5672": "集锦", "4219": "美人", "1528": "达到", "7835": "牛人", "8886": "穿衣", "1897": "机油", "75": "可以", "697": "突然", "4601": "付出", "122": "到底", "1635": "赴", "33": "我", "6777": "均线", "17133": "快船", "816": "周", "2062": "自然", "14226": "合计", "7557": "军机", "1191": "之间", "5899": "吃香", "6453": "飞翼", "698": "开展", "12630": "绩效", "59": "网友", "8573": "异地", "989": "驾驶", "15139": "屹立", "35": "大", "1865": "5万", "14639": "蒲公英", "11437": "小楷", "921": "河南", "1518": "纷纷", "446": "西决", "14794": "麦康奈尔", "14729": "野", "42": "美国", "3788": "客观", "14580": "突破口", "304": "注意", "1461": "伊", "3880": "逛", "36": "、", "2087": "踢出", "10205": "在场", "6659": "新婚", "298": "看看", "5558": "讲座", "11726": "香蕉", "13582": "嘿", "3801": "章", "6631": "墨西哥", "695": "朋友", "2399": "提莫", "97": "岁", "6432": "花落", "1670": "红楼梦", "470": "个人", "10144": "仔猪", "835": "愿意", "62": "世界", "10997": "年间", "2047": "退休", "10010": "疾病", "15585": "速来", "245": "总统", "1523": "方案", "9382": "民调", "16411": "脚垫", "5882": "互相", "11165": "艾美奖", "3861": "寿命", "7434": "担保", "37": "看", "10960": "地级市", "5609": "国企", "15400": "硝烟", "4463": "800", "6440": "贼", "5034": "武林", "691": "滴滴", "507": "住", "7088": "山区", "138": "大学", "5373": "机", "10769": "违约金", "3950": "班主任", "8020": "火勇", "1306": "军队", "5648": "王健林", "15725": "Macan", "369": "发现", "3330": "房企", "872": "爆发", "7169": "邮轮", "172": "｜", "17452": "穆", "2040": "客场", "38": "上", "11587": "百日", "1457": "乔丹", "17612": "越南人", "2001": "业主", "988": "雷军", "12174": "迈进", "3353": "上下", "10313": "湖北省", "195": "带", "6862": "隔", "1293": "为啥", "1039": "12", "17451": "稳重", "4289": "养老金", "56": "他", "3305": "贵阳", "1878": "柳传志", "213": "马云", "16721": "一夜间", "11968": "捂脸", "1210": "彻底", "1701": "共", "370": "+", "9033": "大炮", "9107": "法官", "11629": "美学", "14976": "养母", "40": "买", "815": "三大", "2567": "红包", "41": "好", "9774": "重演", "3699": "师傅", "1876": "伟大", "733": "解说", "5398": "诺基亚", "5370": "改进", "1315": "76", "12501": "早评", "12948": "娘", "1241": "胜", "1419": "做好", "7389": "古力娜", "329": "出现", "3151": "发声", "12495": "文创", "10110": "1500万", "4486": "少有", "288": "俄", "4077": "球场", "44": "还", "12734": "飞往", "4907": "通信", "11756": "CRV", "737": "后悔", "4229": "34", "3144": "首秀", "2708": "红旗", "3041": "气场", "13183": "精英赛", "4542": "争论", "1189": "老板", "11451": "巨亏", "12034": "江铃", "7809": "杜江", "6424": "笨", "11506": "接爱", "13626": "官博", "165": "评价", "4697": "男乒", "11926": "库尔德", "13233": "视", "15388": "盘口", "427": "那些", "9402": "爱好", "623": "政策", "12348": "后勤", "14748": "随性", "10094": "风范", "1294": "初中", "9786": "陈小春", "7857": "范爷", "11169": "荣威RX5", "46": "将", "2746": "国家队", "7991": "明珠", "5089": "决战", "4544": "事实", "801": "曾经", "12176": "运动版", "1786": "半", "3634": "足坛", "1803": "冯", "47": "下联", "2059": "知名", "1588": "主力", "48": "上联", "11708": "问询", "4819": "立刻", "55": "后", "60": "到", "11457": "幸亏", "1057": "巅峰", "9799": "20号", "16428": "苗阜", "3474": "自曝", "952": "正在", "12485": "搭上", "6230": "不明", "13398": "buff", "6357": "亲民", "2692": "30年", "12473": "指向", "14405": "搏", "135": "2018年", "7587": "奖学金", "740": "响", "12899": "发言", "8088": "R1", "1325": "!", "895": "养", "3393": "接近", "4105": "前锋", "12543": "汇报", "1579": "Android", "10654": "民航", "61": "谁", "11503": "掏钱", "3956": "赛区", "7697": "限速", "442": "导弹", "2003": "反击", "2189": "李白", "63": "却", "4487": "当红", "9913": "布置", "1686": "期货", "128": "打", "5431": "富二代", "2253": "制作", "11694": "郑州市", "64": "来", "11230": "颔联", "7648": "清洁", "505": "近", "3869": "机枪", "1538": "同样", "456": "解决", "9272": "决策", "3154": "度假", "15175": "志愿军", "1226": "数字", "3997": "进来", "6381": "大比拼", "2576": "使", "12182": "迷失", "65": "又", "3259": "扎心", "3949": "王源", "2866": "首都", "6163": "拉萨", "1065": "严重", "4711": "远远", "430": "鸡", "13435": "丸子", "12894": "印度尼西亚", "66": "说", "5743": "电路", "577": "所有", "13496": "养卡", "7904": "五代", "262": "认为", "3749": "打出", "10994": "幅度", "3329": "房产证", "2679": "大全", "3019": "保证", "7307": "自身", "7210": "出差", "67": "没有", "7532": "不堪", "3746": "希拉里", "5008": "婆家", "296": "分", "1053": "带来", "3527": "一对", "68": "用", "274": "智能", "1277": "兄弟", "8508": "主攻", "660": "日", "16034": "寻常", "208": "价格", "7972": "戏骨", "3069": "浪费", "10551": "好些", "4647": "逃", "1757": "心疼", "10191": "各区", "284": "工作", "9746": "街机", "196": "是否", "8186": "无效", "3655": "平民", "1091": "交", "4667": "北海", "974": "晋级", "12759": "齐鲁", "1316": "人才", "69": "年", "11358": "厢", "14304": "安卓P", "4545": "低于", "2963": "思维", "14045": "11.3", "5024": "拉升", "12933": "大卫", "70": "如果", "605": "交易", "352": "宣布", "15192": "戬马琳齐", "71": "两", "11860": "叔子", "3775": "一刻", "14944": "余利宝", "2331": "明月", "11180": "诉讼", "3315": "五菱", "72": "也", "73": "车", "13420": "不利", "212": "等", "16033": "寡妇", "2043": "正常", "12558": "湘", "9957": "揭露", "17716": "顺便", "5605": "卖家", "489": "六", "337": "7", "13259": "车手", "9688": "极速", "2918": "丁宁", "411": "时代", "9061": "库克", "10187": "发达国家", "15987": "天门山", "5369": "撤销", "74": "更", "1443": "波", "9844": "军衔", "14685": "足迹", "188": "那么", "6591": "180", "76": "元", "8777": "名帅", "364": "回", "8684": "赛点", "7649": "清洗", "77": "过", "78": "之", "1507": "全世界", "13768": "构成", "12089": "眼皮", "4554": "增强", "2298": "来临", "79": "为", "1715": "无意", "1072": "资金", "80": "小", "2998": "公公", "898": "里面", "451": "座", "9508": "黄瓜", "4603": "农场", "15319": "毛巾", "2056": "江西", "13303": "难雅", "81": "现在", "17740": "高频", "1357": "去世", "82": "还是", "10069": "适用", "5813": "婚", "83": "想", "10005": "理性", "6229": "不为人知", "261": "仅", "84": "很", "5532": "文学", "187": "可", "14186": "分布式", "5811": "大火", "10209": "堕落", "278": "发布", "9832": "似乎", "10615": "支出", "85": "第一", "3022": "出售", "1479": "一季度", "14517": "爱戴", "6728": "53", "2192": "避免", "5890": "创业板", "98": "为何", "16915": "发展史", "4978": "除", "13249": "贺", "2962": "当今", "250": "SUV", "16076": "弗爵", "1590": "内容", "12286": "体能", "16687": "IDC", "7319": "跳水", "2701": "成龙", "969": "主播", "2542": "局", "86": "把", "551": "英语", "3043": "电信", "7609": "心脏", "87": "做", "5735": "枪械", "15416": "章泽天", "1386": "福利", "209": "拿", "7250": "延期", "13803": "洪七", "14969": "八仙", "388": "所", "9714": "献", "14359": "意欲", "408": "武器", "1231": "接", "5593": "倾情", "16777": "云皓", "2146": "发达", "17483": "结婚证", "9762": "车衣", "8108": "出品", "88": "没", "520": "打造", "900": "变化", "4056": "丽江", "306": "银行", "89": "农村", "3218": "输出", "4624": "戚薇", "7984": "换装", "511": "/", "91": "给", "16231": "残暴", "504": "开启", "5448": "海域", "571": "大众", "2333": "照", "3970": "原理", "4327": "迪丽热巴", "17515": "自助游", "11080": "桶", "2405": "榜首", "125": "汽车", "955": "别人", "16152": "指挥部", "10026": "经济学", "6370": "包子", "14927": "产地", "92": "该", "9979": "林青霞", "103": "太", "1927": "明白", "2827": "境地", "4628": "旁边", "15860": "军犬", "884": "帮", "3342": "王菲", "10303": "派对", "1469": "惨", "2706": "炉石", "93": "怎样", "5556": "蜜蜂", "10659": "沸沸扬扬", "4892": "积分榜", "569": "上涨", "3681": "DOTA", "1954": "登场", "94": "呢", "282": "历史", "2645": "从来", "10962": "夏沫", "3528": "上单", "16015": "孙艺珍", "16341": "石刻", "14715": "逼死", "5747": "简介", "12434": "幽魂", "95": "美", "2991": "防", "3206": "田", "15252": "断电", "5094": "判罚", "260": "退出", "484": "RNG", "1404": "简直", "303": "冠军", "12410": "安倍晋三", "4999": "去处", "416": "旅行", "10488": "充电宝", "362": "进入", "15164": "弱爆", "9040": "娘子", "4627": "托", "972": "韩", "8927": "远古", "404": "平台", "5027": "提速", "1219": "二手房", "4453": "郭", "15893": "勒索", "99": "游戏", "1731": "油", "368": "球员", "3973": "天上", "14225": "吃力", "13064": "朱可夫", "7940": "大盘点", "1812": "预计", "12830": "争霸赛", "100": "款", "16139": "抹黑", "7429": "打压", "613": "关系", "3764": "蒋欣", "1168": "份", "15413": "突", "101": "高", "658": "东西", "2123": "状元", "7673": "花旦", "102": "哪个", "2869": "凉", "2128": "驻", "104": "王者", "1748": "戏", "1633": "小伙", "1007": "只是", "17071": "尿急", "4331": "降薪", "3416": "不满", "10937": "后台", "1707": "下去", "16419": "自选", "5920": "手表", "16031": "客串", "2632": "报价", "105": "比", "4010": "仙女", "1996": "海上", "17059": "对视", "14550": "症状", "4036": "本土", "7041": "两点", "106": "荣耀", "7597": "川普", "6769": "唐僧", "2025": "博物馆", "148": "真的", "15135": "居高不下", "1495": "办法", "3364": "微笑", "15418": "笑场", "5364": "我军", "8276": "一部分", "3809": "顺风车", "356": "年后", "11656": "董事", "13805": "活路", "8149": "宁可", "17681": "锋范", "10852": "下巴", "4055": "主流", "10470": "争东", "107": "她", "108": "几", "2213": "安装", "12218": "饱受", "4026": "挺进", "7331": "顾问", "9444": "耳朵", "1022": "助力", "13319": "音乐会", "10371": "试飞", "7258": "护航", "9371": "村干部", "693": "话", "109": "里", "11700": "钜惠", "12573": "爵爷", "1418": "青年", "9958": "收盘", "5282": "校区", "10166": "分校", "14648": "蛙", "7408": "完善", "8294": "健美", "13051": "无忧", "13934": "视而不见", "897": "遇到", "11650": "获赞", "4940": "复盘", "12088": "真爱", "111": "这个", "842": "A股", "2080": "安排", "113": "知道", "3288": "取", "290": "国际", "10300": "法庭", "11950": "意志", "560": "图", "16619": "黑寡妇", "114": "出", "6313": "电器", "11277": "cm", "15604": "镜子", "1535": "军人", "1267": "网红", "659": "手游", "3201": "幅", "375": "换", "13499": "再有", "115": "多少", "16756": "丰厚", "802": "加", "1797": "证券", "3253": "动物", "8902": "航线", "981": "分享", "7771": "家门口", "116": "日本", "15968": "基建", "16427": "花都", "646": "合适", "12679": "诸多", "8688": "辣妈", "2741": "二手", "5567": "逗", "1195": "离", "117": "」", "2676": "受到", "4800": "宿舍", "2533": "6万", "118": "「", "7834": "父子", "5030": "景观", "6822": "猛增", "500": "求", "14664": "计", "12277": "交易员", "354": "一样", "328": "电影", "1069": "东部", "119": "钱", "14569": "福特号", "1689": "IPO", "5360": "延安", "2194": "主持人", "243": "别", "7244": "实习", "9793": "︱", "16503": "过上", "4680": "年底", "8671": "脱颖而出", "3228": "公认", "6197": "精灵", "14624": "自杀式", "796": "汶川", "4097": "&", "1860": "羡慕", "3153": "年代", "6007": "五州", "12796": "US", "5117": "握", "251": "称", "7484": "缴获", "654": "深圳", "3942": "提车", "10083": "闪", "120": "自己", "4352": "哈佛", "121": "哪", "701": "机器人", "193": "还有", "11466": "强度", "8339": "孔", "7145": "篮板", "2221": "道理", "123": "得", "7520": "30多", "1640": "公积金", "747": "台", "15576": "迫击炮", "14399": "接地气", "455": "要求", "3763": "药", "6614": "几何", "9357": "收取", "10092": "顾", "15451": "罗斯福", "1672": "20年", "10868": "交互", "210": "卖", "549": "飞机", "15898": "十四", "12115": "细", "6893": "傻子", "11984": "整整", "124": "国家", "7048": "余文乐", "13715": "按键", "1205": "水果", "9165": "薪水", "785": "名字", "162": "房价", "1750": "热门", "6047": "山村", "14543": "男人帮", "5126": "杨毅", "14745": "陈佩斯", "17458": "站台", "126": "这些", "10263": "探班", "6119": "出货", "12335": "卷落相思叶", "358": "战争", "849": "一些", "3919": "马刺", "15275": "最低价", "2980": "征服", "13693": "成精", "4585": "粉色", "127": "3", "129": "次", "4979": "非遗", "17295": "橘子", "5246": "Windows", "1917": "改", "494": "火", "4563": "开出", "389": "件", "5418": "养活", "9763": "车道", "130": "不是", "5628": "无人问津", "1051": "优势", "132": "吃", "852": "女孩", "7474": "神级", "133": "种", "2309": "学霸", "4132": "细数", "793": "决定", "8152": "实情", "4008": "不再", "3385": "困难", "994": "晒", "2196": "千年", "8237": "花花生米", "7166": "读完", "136": "5月", "5067": "首相", "137": "活动", "6438": "谎言", "5950": "相似", "139": "公司", "6519": "庭院", "1406": "三星", "8946": "青", "5983": "高空", "5460": "考前", "16814": "保密", "313": "家长", "3217": "车企", "9974": "李菲儿", "8465": "郭艾伦", "14561": "短命", "1746": "美国人", "140": "着", "2686": "礼服", "4367": "教材", "366": "国内", "10231": "广大", "1836": "不够", "141": "下", "17738": "高材生", "16401": "老二", "1448": "危机", "3724": "那样", "743": "好玩", "4714": "雍正", "2562": "文明", "6966": "框", "2954": "否则", "142": "联想", "15825": "修理厂", "143": "伊朗", "2023": "几乎", "17341": "浦东", "144": "前", "4196": "居", "11162": "自救", "276": "敢", "14766": "面条", "3621": "硕士", "145": "）", "2354": "2020年", "703": "演员", "3698": "守望", "10111": "1分", "15134": "尿", "3542": "撞", "2820": "停", "15661": "1.8亿", "17275": "构筑", "6923": "存入", "146": "2018", "1381": "30", "17414": "盲女", "6129": "单词", "5158": "骑行", "464": "美军", "270": "求生", "16335": "省市", "10109": "1.4T", "275": "场", "8982": "乐视网", "147": "（", "3285": "低价", "788": "书法", "1948": "射手", "3725": "锁定", "13547": "反映", "16415": "自尽", "1045": "行", "3357": "合法", "15497": "薛宝钗", "13972": "通知书", "149": "强", "8113": "剪辑", "11810": "佩雷拉", "1892": "生命", "6668": "毛病", "6601": "两岸", "9172": "语录", "150": "房", "625": "赚", "9335": "开场", "5455": "科尔", "566": "何", "4902": "角度", "4621": "待", "11765": "Vv", "3590": "霍思燕", "984": "女友", "7206": "做人", "2643": "骄傲", "13326": "飞鸟", "6204": "覆盖", "15888": "前夜", "2514": "落幕", "12081": "痴迷", "3408": "量产", "16309": "甘愿", "1888": "开发商", "151": "——", "881": "移动", "9474": "账", "13566": "听课", "896": "比特币", "4690": "星巴克", "152": "才", "7184": "8.0", "153": "我们", "684": "拍", "10928": "变质", "13511": "刃", "1903": "骑", "1081": "制造", "499": "情况", "15370": "环游", "2840": "碗", "17193": "换标", "16666": "450亿", "16543": "钙", "5229": "苏", "8239": "荣威RX8", "14863": "Wi-Fi", "440": "功能", "469": "一起", "2930": "干净", "15582": "逊色", "12922": "坚挺", "154": "只", "6105": "bug", "783": "坐", "13665": "幻影", "197": "学生", "3576": "投降", "15870": "出人意料", "15089": "奔袭", "2332": "江湖", "2002": "保养", "14582": "窗外", "592": "考", "17217": "故障率", "510": "戛纳", "2810": "课", "3128": "心里", "6724": "0-0", "1905": "住房", "3569": "夺", "3473": "维修", "6516": "常州", "347": "像", "709": "景区", "15823": "信念", "9022": "回头率", "3436": "清", "7784": "意想不到", "9427": "稀天", "14088": "一元", "155": "从", "11255": "2000亿", "3424": "地点", "156": "5", "6100": "金价", "157": "俄罗斯", "880": "皇马", "8965": "57", "177": "位", "848": "程序", "3713": "组建", "4589": "贾", "11905": "实录", "159": "已", "3378": "G5", "3004": "富力", "4898": "统治", "8004": "次数", "1492": "赵", "160": "成", "161": "这么", "1377": "工程", "2796": "待遇", "8483": "24万", "859": "创造", "15314": "殷桃", "163": "孩子", "3615": "栋", "13099": "法规", "176": "房子", "10882": "俞", "14854": "S8", "164": "四", "17084": "工科", "423": "合作", "2636": "男生", "8967": "71", "323": "上海", "12353": "商丘", "166": "成为", "12712": "重复", "167": "事", "7862": "费城", "6657": "支队", "263": "明星", "14738": "长久", "1109": "考生", "8617": "泪奔", "1719": "魅力", "1309": "失败", "15445": "绿本", "14212": "占用", "4747": "挣钱", "168": "小米", "11245": "黑嘴", "327": "成功", "7387": "受邀", "17041": "安生", "2931": "教育部", "169": "或", "5991": "G3", "10148": "何以", "1902": "财富", "351": "亮相", "10523": "吞食", "2936": "民众", "2384": "研制", "4456": "锁", "968": "首发", "5658": "解答", "13307": "雨战", "13788": "死人", "170": "真", "2792": "寻找", "5871": "高颜值", "173": "天", "12051": "灯光", "8874": "白纸", "12597": "直面", "1830": "同时", "11515": "攻击机", "471": "西安", "10557": "存储", "174": "火箭", "3065": "慢", "939": "高中", "5782": "佛系", "757": "父母", "178": "未来", "10060": "身后", "234": "全", "2092": "天天", "15483": "药害", "179": "2", "2989": "调侃", "8076": "饰演", "412": "准备", "2506": "密码", "2436": "新一代", "5395": "脏", "3643": "专属", "449": "再次", "825": "贷款", "5276": "抱团", "12178": "运城", "2880": "班", "4193": "大使馆", "11133": "突击队", "14334": "带伤", "180": "城市", "1557": "自驾游", "656": "视频", "13808": "测试服", "181": "以色列", "182": "玩", "8991": "供应商", "253": "全球", "9811": "三国演义", "14895": "不必", "2068": "富", "13001": "快递员", "1103": "取消", "5903": "基层", "183": "老师", "9668": "整顿", "12060": "牙膏", "218": "微信", "10786": "重做", "1297": "拿下", "2269": "踩", "932": "保险", "184": "开", "14587": "笔法", "8285": "任志强", "1434": "总是", "185": "4", "391": "学", "7525": "6月份", "6507": "委屈", "3799": "登记", "6952": "提额", "186": "大家", "12716": "销魂", "6920": "大本营", "9128": "生完", "1607": "40", "7189": "三万", "5281": "最爱", "3691": "单车", "7699": "雅俗共赏", "953": "母亲节", "4786": "从事", "4734": "定制", "2509": "扣", "1184": "国外", "7503": "阴谋", "189": "发展", "16096": "快运", "9756": "走低", "11908": "容", "667": "大会", "3149": "兰州", "13840": "白俄罗斯", "8054": "蒙古国", "1055": "美丽", "12177": "运动鞋", "1554": "欲", "8677": "蜘蛛", "1010": "种植", "13465": "佛祖", "15929": "吉克隽逸", "655": "行动", "474": "排名", "6624": "叫好", "1604": "顶级", "7089": "带给", "3235": "大叔", "8361": "户籍", "5827": "彰显", "3392": "感到", "190": "名", "2397": "影响力", "4844": "660", "1874": "一路", "14377": "抗日战争", "7404": "处处", "286": "以", "6916": "嗨", "16289": "牛津", "3220": "雷霆", "5732": "春雨", "1922": "说出", "191": "走", "4719": "一头", "4535": "App", "16184": "无地自容", "2570": "说明", "15702": "800多", "315": "什么样", "7352": "下月", "5120": "新鲜", "194": "协议", "7134": "特", "4262": "曼城", "10607": "持枪", "16105": "情书", "841": "轻松", "3904": "天美", "6971": "沪指", "198": "这种", "15383": "皮尔洛", "1662": "垃圾", "2717": "代言", "4244": "华", "14885": "三厢", "199": "选择", "4417": "宜居", "333": "越", "2371": "一辈子", "8693": "邮政", "2116": "同意", "599": "；", "17143": "悬殊", "775": "知识", "2801": "案例", "5675": "飘", "7716": "GLC", "6827": "登录", "5051": "警方", "1002": "赵丽颖", "200": "市场", "15216": "挖出", "1781": "相信", "14220": "古巴", "201": "需要", "12663": "蓝心", "8106": "写字", "2784": "骑士队", "202": "张", "9083": "搬迁", "458": "夺冠", "12958": "宝箱", "14429": "晒晒", "1601": "每日", "203": "而", "3092": "幕后", "11561": "淘宝客", "1270": "浙江", "9194": "金星", "5225": "类似", "2772": "挑", "4435": "私人", "8740": "了不起", "1576": "结局", "2725": "太原", "914": "房地产", "204": "技术", "1745": "成交", "16586": "预览", "3670": "规范", "10889": "公", "13366": "50分", "15253": "断裂", "4243": "制定", "10298": "法会", "1728": "跳", "205": "6", "16843": "全家照", "7902": "中外", "206": "值得", "16495": "车联网", "1768": "成长", "13054": "显摆", "5023": "拆", "15912": "双叒", "6207": "豆瓣", "1598": "基础", "207": "华为", "211": "应该", "12216": "风吹", "907": "空间", "2564": "电竞", "1623": "生存", "1422": "首付", "10032": "编剧", "12104": "竹径", "214": "8", "4087": "造车", "565": "贵", "373": "投票", "4386": "誉为", "3096": "抗战", "8914": "视野", "8637": "相对", "215": "但", "5002": "命名", "3549": "甚至", "3879": "证书", "725": "提高", "3442": "胖", "13758": "有型", "14769": "顶楼", "479": "进行", "1310": "奇葩", "11449": "岛国", "13933": "覆没", "216": "喜欢", "481": "及", "17456": "窄幅", "3202": "张柏芝", "4124": "昆凌", "2816": "Uzi", "219": "投资", "12931": "多亏", "14636": "莫文蔚", "473": "创业", "9381": "民工", "13162": "硬伤", "3562": "出路", "289": "月", "750": "存在", "220": "当", "15302": "梅雨天", "1435": "新疆", "16738": "不光", "1409": "任务", "293": "爱", "4027": "捧", "221": "北京", "9470": "语逐", "2035": "入选", "3631": "蒙蒙芳", "447": "参加", "1533": "工业", "222": "十", "7086": "小商贩", "3383": "出击", "8757": "冤", "367": "超", "4432": "疯", "3711": "竞赛", "223": "教育", "3536": "唯独", "5569": "遍地", "1991": "取代", "326": "跟", "1257": "找到", "224": "五", "8452": "讲话", "7682": "超巨", "2292": "喜", "3121": "后面", "225": "上市", "8578": "征求", "828": "地震", "15457": "羹尧", "371": "出来", "6156": "德安", "14451": "松下", "1652": "24", "7191": "上帝", "10662": "泡面", "226": "怎么办", "1282": "爵士", "12979": "广电", "5640": "沸腾", "383": "女儿", "6067": "海鲜", "1173": "重大", "2258": "开战", "12571": "照明", "454": "战场", "8986": "亡", "227": "无", "810": "说法", "3229": "六大", "14651": "血液", "6898": "列车", "228": "首", "616": "黄山", "9277": "分组", "582": "夜", "1141": "前景", "14484": "法甲", "4891": "种子", "395": "这是", "15371": "球迷们", "12747": "高尔夫GTI", "5891": "力度", "376": "最好", "342": "升级", "13756": "曾志伟", "229": "詹姆斯", "3463": "所有人", "9745": "街拍", "1059": "特色", "230": "出席", "11961": "拆掉", "5354": "巩俐", "5259": "名气", "12075": "生态圈", "445": "球迷", "7370": "修建", "231": "老", "15246": "放眼", "5897": "取胜", "14047": "1310", "763": "回家", "1550": "驾照", "906": "电脑", "10628": "明清", "7547": "作诗", "735": "皮肤", "232": "。", "6311": "申报", "233": "快", "2546": "显示", "1765": "面积", "8419": "看不起", "9410": "男足", "6874": "N7", "2669": "防空", "12349": "听见", "235": "NBA", "760": "有限", "2005": "小心", "1102": "牛", "11368": "各省", "11057": "敢于", "349": "只有", "236": "可能", "15394": "眼看", "16285": "烟草", "2688": "行驶", "2285": "稳定", "3979": "惠州", "1572": "镜头", "237": "推荐", "15125": "小人", "1669": "爆炸", "3774": "400", "7982": "抽烟", "238": "国产", "1900": "物业", "856": "可信", "2549": "设施", "16636": "12000", "7400": "地上", "4187": "兼职", "1602": "苏联", "4130": "穿着", "845": "强势", "239": "问题", "4403": "众怒", "1082": "本田", "1374": "世锦赛", "17691": "阿帕奇", "2353": "鹈鹕", "12465": "技艺", "3313": "个股", "240": "比赛", "4218": "续", "17007": "天神", "2208": "距离", "2829": "好好", "2738": "第六", "1428": "空军", "10593": "惨状", "241": "它", "7694": "途中", "242": "勇士", "3386": "夏威夷", "15997": "奏响", "617": "丰田", "4512": "玩转", "2022": "具", "272": "已经", "281": "-", "244": "印度", "6316": "硬汉", "3697": "娃", "13743": "敞篷", "246": "苹果", "17617": "路透", "5495": "下令", "1769": "打野", "1194": "战", "1478": "马", "247": "骑士", "927": "过后", "591": "考试", "15367": "王嘉尔", "248": "联盟", "10178": "单曲", "1118": "开幕", "424": "本", "1170": "门", "7317": "跌落", "254": "地方", "12832": "二，二生三", "14930": "人均收入", "8779": "吕布", "255": "生活", "256": "哪里", "3620": "短期", "13897": "肠子", "439": "好的", "3410": "队员", "16875": "剑客", "257": "影响", "7674": "莫雷", "258": "吧", "4089": "陆军", "17432": "磨", "3209": "破坏", "10268": "敬礼", "2052": "惹", "259": "……", "10168": "初步", "401": "原来", "265": "难", "13095": "江一燕", "2875": "家人", "11796": "云雾", "513": "成都", "535": "关于", "6436": "证据", "477": "设计", "9972": "本身", "15193": "手撕", "6248": "出头", "4687": "扫地", "266": "品牌", "3999": "金币", "5185": "卸妆", "2494": "短码", "1084": "造", "6237": "人文", "7402": "坑爹", "4578": "相当", "267": "高考", "8772": "叙军", "618": "以后", "7261": "捷豹", "14771": "顺德", "13611": "奉献", "268": "绝地", "2179": "乌克兰", "13876": "糖果", "1983": "苏宁", "1848": "身边", "8067": "长文", "4860": "分销", "1834": "这就", "4143": "PK", "12916": "四月份", "269": "今年", "271": "就是", "7489": "节点", "273": "即将", "14274": "大法", "7302": "简章", "10387": "退游", "1256": "战斗机", "12560": "满血", "6146": "屡", "518": "方法", "3762": "翻盘", "3262": "撕毁", "2145": "剩", "7981": "披", "277": "曝光", "7985": "提到", "1921": "纪念", "6775": "团体赛", "2515": "试试", "15718": "Hero", "908": "创", "6321": "苗", "12962": "密会", "279": "比较", "9582": "史诗级", "1527": "系", "971": "质量", "16110": "懊悔", "606": "游客", "482": "究竟", "3876": "真心", "6455": "驾校", "280": "1", "13831": "珍爱", "2884": "股价", "16682": "COS", "1944": "奥巴马", "2067": "土豪", "6340": "3.0", "14701": "这样子", "5867": "超大", "699": "八", "6042": "太阳能", "1488": "季", "3897": "助理", "1578": "预算", "15190": "战事", "696": "十大", "5530": "捐", "2205": "爆", "486": "一下", "1890": "最低", "2435": "推动", "6607": "全时", "978": "新闻", "283": "女", "6326": "读懂", "1232": "父亲", "645": "软件", "12056": "熬", "295": "全国", "10485": "保命", "285": "10", "410": "发生", "1638": "下周", "14712": "通州", "15261": "无辜", "4872": "恩比德", "287": "第二", "291": "腾讯", "10378": "资本主义", "472": "重要", "1646": "马上", "8345": "将领", "292": "他们", "294": "句", "13037": "撬动", "2097": "道", "12309": "决斗", "7391": "名片", "15783": "丰尚", "1650": "确定", "690": "摔", "3839": "花海", "3988": "激情", "1850": "1000", "297": "学校", "829": "季后赛", "1142": "AI", "5000": "发飙", "758": "不同", "3848": "光伏", "14931": "人权", "1852": "去年", "809": "艺术", "4012": "写真", "3227": "亲子", "6239": "优", "300": "选", "11062": "新晋", "3421": "卖出", "5028": "操纵", "6488": "卡宴", "2809": "设", "5497": "东南亚", "11980": "敬佩", "475": "某", "11321": "入库", "11809": "伤退", "301": "玩家", "2254": "均价", "12861": "全家福", "10869": "交往", "13753": "春残", "438": "支付宝", "3797": "激光", "302": "很多", "970": "提前", "11735": "1.5t", "1744": "就业", "2235": "看法", "1429": "营销", "597": "倍", "14419": "旗舰机", "11806": "伊斯兰国", "1268": "那个", "12474": "指日可待", "2393": "准", "16602": "驴", "7369": "住院", "573": "专家", "15173": "必杀技", "11669": "货物", "13965": "迫切", "1491": "正确", "488": "核", "10808": "首站", "419": "中超", "807": "工资", "5934": "梅花", "4004": "14万", "2348": "格局", "307": "进", "3398": "杯", "2666": "责任", "3055": "博士", "3116": "创意", "1899": "检查", "13357": "2.6亿", "754": "作为", "4273": "罗晋", "308": "时间", "426": "赛季", "309": "遭", "13155": "眉山", "4761": "祝贺", "9532": "W", "10241": "恶搞", "14661": "詹姆斯季后赛", "365": "项目", "16763": "乐高", "1385": "相比", "12293": "光芒", "15255": "新贵", "924": "权健", "13056": "曙光", "1577": "诞生", "400": "一定", "9027": "墨", "6603": "为主", "893": "类", "1717": "裁判", "311": "军事", "1455": "一生", "5553": "绿化", "10309": "深V", "13440": "乖巧", "312": "5G", "11605": "祸害", "2804": "看见", "1018": "有望", "1099": "美的", "3356": "双肩挑", "316": "安全", "2085": "落后", "3531": "冷门", "6749": "偷袭", "1288": "节目", "702": "梦", "317": "才能", "4632": "点名", "2017": "留下", "3769": "露娜", "1926": "宝宝", "476": "死", "14183": "出场费", "2281": "差别", "9696": "死神", "7350": "一百万", "5172": "从小", "2163": "暴露", "587": "水平", "14400": "接送", "3783": "喂", "6832": "筑", "6747": "代理", "1373": "三亚", "318": "时候", "15502": "蝶变", "2016": "周末", "13751": "春夏秋冬", "1930": "25", "3336": "故障", "8209": "海屏", "1683": "回到", "2602": "新加坡", "751": "意思", "16319": "痛快", "4879": "教程", "950": "级", "9354": "撒娇", "16348": "磨损", "2972": "连接", "10444": "CPU", "320": "美元", "1792": "房车", "321": "辆", "9631": "师范大学", "10846": "三方", "1012": "最近", "8725": "khan赛", "1320": "步枪", "322": "系统", "8606": "柳州", "2141": "落户", "13552": "口号", "501": "竟", "11345": "力争", "2340": "利好", "324": "套", "3348": "迟到", "6675": "演示", "2907": "日常", "10867": "云伴舞", "325": "恒大", "6079": "米莱狄", "4477": "军团", "330": "战机", "8563": "小生", "8787": "图书馆", "8819": "打硬仗", "958": "放弃", "3944": "朝鲜", "5683": "一批", "331": "觉得", "1148": "运动", "3444": "自杀", "332": "适合", "527": "米", "334": "连", "9026": "墙上", "335": "你们", "336": "请", "2517": "部门", "6231": "中航", "13532": "北京市", "17539": "苦不堪言", "422": "股份", "3521": "重启", "6118": "凯迪拉克", "964": "现代", "338": "科技", "689": "值钱", "12069": "球馆", "8163": "必将", "1063": "校园", "3293": "时隔", "339": "经济", "15187": "成交价", "8602": "暴利", "4684": "微视", "3703": "普通人", "590": "上线", "15809": "会徽", "341": "二", "7576": "周立波", "343": "那", "2222": "领克", "8738": "乐观", "8080": "58同城", "16938": "君威", "7568": "到家", "9700": "汉子", "344": "厉害", "1918": "村", "2111": "进球", "3016": "交流", "762": "主场", "2603": "无缘", "11780": "丑陋", "3279": "霸道", "2125": "至少", "1616": "奥迪", "3609": "味道", "13269": "连连", "648": "景点", "4248": "名爵", "3289": "大批", "345": "送", "7363": "京都", "1501": "书", "348": "曾", "8005": "比利时", "350": "如今", "8770": "反馈", "10601": "报恩", "1076": "惊艳", "596": "结婚", "5341": "及时", "12589": "电费", "4924": "乞丐", "1262": ")", "8104": "光环", "465": "获", "353": "行业", "6228": "下水", "7133": "牌照", "1906": "同学", "8878": "神剧", "860": "挑战", "355": "使用", "16336": "看衰", "418": "职业", "15392": "看穿", "14754": "难言", "1889": "携手", "538": "为了", "2916": "黄", "10248": "截至", "7373": "光辉", "7638": "死刑", "357": "韩国", "429": "小学", "10507": "勇夺", "16837": "克隆", "6917": "外国语", "2718": "作业", "4413": "围观", "9900": "安乐死", "359": "地", "935": "哈登", "5708": "壶", "2019": "高达", "15358": "特有", "4676": "尤文", "363": "航母", "3360": "大多数", "1114": "下跌", "973": "一点", "5232": "进口车", "800": "招生", "4165": "映", "374": "伊核", "3511": "福州", "3596": "三四线", "377": "向", "3221": "驱逐舰", "1172": "普通", "3109": "阿根廷", "14908": "中车", "16905": "即便", "633": "刺激", "7900": "专辑", "7779": "开馆", "378": "条", "14314": "宽容", "379": "事件", "3380": "不请特朗普", "3534": "势力", "12537": "毒瘤", "2889": "需求", "8058": "误解", "381": "王", "9160": "舞", "6103": "马天宇", "6648": "很快", "5385": "笔下", "382": "届", "6182": "气势", "14098": "上舰", "6165": "插足", "1709": "人气", "6639": "女队", "1131": "队友", "13976": "逮捕", "5046": "维持", "384": "黄金", "650": "尴尬", "10763": "转行", "5598": "划分", "5338": "减持", "385": "农民", "546": "盘点", "3914": "观察", "3068": "植物", "15153": "幽灵", "386": "司机", "1433": "大赛", "744": "最佳", "10783": "配音", "387": "文化", "8293": "停放", "3836": "火热", "13411": "三部曲", "614": "消息", "11281": "一模一样", "4287": "世界级", "390": "见", "9858": "半价", "5118": "摘", "2490": "再现", "15247": "放贷", "1609": "多年", "10312": "清水", "12890": "升学", "4681": "引入", "943": "公园", "10194": "名模", "392": "专业", "1273": "知", "784": "系列", "393": "经典", "3633": "谈判", "1545": "小说", "2505": "出发", "394": "之后", "6441": "资深", "6938": "心机", "13460": "低速", "8823": "接盘", "396": "教师", "1401": "占", "2593": "主教练", "12981": "应当", "4154": "宝", "8191": "暗黑", "580": "漂亮", "397": "内", "3477": "迪丽", "14447": "李沁", "5242": "*", "2556": "哪儿", "13686": "愈", "399": "算", "10345": "继伟", "663": "路", "903": "北大", "3236": "子", "2031": "男篮", "402": "决赛", "405": ",", "8354": "张本智", "3451": "1亿", "2961": "开关", "512": "其", "7196": "书籍", "4845": "一次性", "7193": "中立", "3595": "1.5T", "7155": "脸上", "8908": "虚假", "857": "回归", "11448": "屏蔽", "406": "部", "728": "第四", "3464": "执教", "5886": "克星", "4504": "明", "13283": "配资", "407": "全新", "15756": "万众", "6652": "截图", "13502": "冬冬", "1647": "X", "9258": "信阳", "899": "不如", "444": "的话", "409": "输", "7173": "铃木", "5442": "携带", "1484": "青春", "2966": "烧", "8665": "职位", "437": "实力", "724": "各", "16168": "摩登", "11924": "庄子", "413": "学习", "3072": "统一", "11350": "午评", "14779": "风车", "3589": "铁", "6084": "美图", "687": "目前", "10661": "油腻", "13109": "清算", "1502": "日本人", "3573": "彩礼", "16060": "平常", "14618": "育苗", "1775": "舆论", "8640": "矮", "5271": "局面", "4064": "商铺", "4720": "上门", "414": "现身", "13960": "过招", "16013": "孕", "7075": "坑人", "415": "看到", "949": "杜兰特", "3490": "制度", "7968": "恋", "417": "起来", "12711": "酒席", "5216": "港股", "10200": "四国", "1946": "好处", "13929": "衔接", "5837": "数十", "4636": "群众", "6535": "支援", "420": "区块链", "8194": "有毒", "11601": "碧水", "4757": "港澳", "14679": "赛果", "421": "区别", "10747": "认同", "2887": "连胜", "17735": "高压", "428": "宝马", "4790": "双双", "662": "大学生", "1280": "著名", "431": "不要", "7093": "座椅", "9480": "超玩会", "1003": "坚持", "526": "发", "6512": "巴勒斯坦", "3558": "29", "432": "直接", "5777": "主人", "1998": "穷人", "16400": "翻飞", "6903": "势头", "1575": "引发", "433": "举行", "8851": "波波维奇", "434": "教", "779": "现场", "435": "靠", "9184": "过山车", "3922": "争霸", "13110": "滁州", "4828": "西装", "12517": "来华", "635": "我国", "3449": "麻烦", "16088": "待解", "16404": "耐人寻味", "3750": "扛", "436": "写", "1534": "巴基斯坦", "441": "能否", "6810": "末日", "2278": "偶遇", "9895": "奥迪A4L", "16303": "玩到", "6910": "合集", "12385": "大热", "9297": "吉林省", "443": "分钟", "448": "标准", "450": "回应", "742": "轰炸", "615": "数据", "452": "继续", "7161": "观念", "6720": "面向", "4032": "故宫", "2010": "级别", "3101": "甘肃", "3222": "黄磊", "453": "不用", "4470": "交给", "6875": "WWE", "457": "叫", "14922": "于是", "1569": "少女", "1104": "坑", "8727": "一发", "2595": "作", "7324": "逃生", "14075": "Huni", "459": "双", "7032": "x", "460": "球队", "3504": "服役", "7871": "遭受", "6452": "颁奖", "7666": "纳粹", "13515": "制专", "15573": "远重", "4485": "孙俪", "556": "20", "5393": "老梁", "2580": "哥哥", "461": "变", "11994": "明知", "3730": "58", "1367": "坏", "462": "叙利亚", "16355": "秀色", "466": "高通", "9055": "尾盘", "9615": "完毕", "13287": "金球奖", "6301": "比肩", "14782": "饮", "3182": "李宇春", "1963": "演讲", "12565": "炸沉", "17657": "速箱", "496": "机会", "13000": "心理学", "14697": "边防", "15076": "大学会", "8158": "巨", "14468": "武士", "467": "越来越", "468": "销量", "6054": "扬言", "1459": "电池", "3035": "抗衡", "10228": "山水画", "5586": "严", "478": "基地", "7715": "G1", "1456": "不怕", "490": "关键", "10454": "iPhone7", "574": "便宜", "7526": "BUG", "777": "中心", "1100": "布局", "3605": "刘涛", "4929": "傻傻", "13919": "蒋介石", "480": "公布", "10288": "榴莲", "12794": "S5", "8521": "供养", "483": "2017年", "7119": "有种", "6759": "劲敌", "485": "啊", "13492": "六号", "13909": "荒唐", "5247": "专场", "1582": "比亚迪", "3798": "物理", "13759": "有机肥", "821": "公告", "16150": "挂靠", "15600": "钢价", "5801": "吃货", "5202": "打完", "561": "有人", "567": "左右", "14466": "歌迷", "15229": "控告", "487": "刚", "2798": "感情", "6642": "安静", "4138": "辉煌", "6560": "真假", "491": "分析", "3499": "德罗赞", "14935": "仰望", "1997": "演唱会", "8460": "这辈子", "3440": "第七", "1524": "每个", "12685": "赞同", "3079": "鞋子", "572": "公里", "4867": "处理器", "492": "发动机", "8650": "红线", "493": "字", "10190": "吃喝玩乐", "1031": "售价", "9956": "提问", "11684": "进阶", "1375": "地图", "495": "找", "2497": "背景", "498": "啦", "4707": "说说", "1992": "可惜", "502": "未", "3448": "锅", "503": "少", "1868": "决择", "10708": "种花", "16071": "开户", "506": "于", "9120": "炮轰", "13921": "蓉", "8875": "白金", "13360": "2022", "15386": "监督", "6486": "单场", "1264": "巴菲特", "5600": "加州", "1778": "台湾", "14655": "衰退期", "7221": "台联", "6833": "经开区", "5975": "防御", "508": "模式", "6339": "17年", "5610": "坚果", "5470": "达人", "9727": "秦皇岛", "794": "提升", "514": "告诉", "515": "支持", "16083": "当爸", "1000": "技能", "1953": "猪肉", "11831": "出线", "1393": "够", "6332": "还原", "6750": "储备", "1796": "英超", "13873": "第三者", "628": "9", "13811": "海警", "4185": "任期", "10311": "混改", "1621": "建筑", "1390": "胜利", "516": "保罗", "2124": "秀", "4108": "北", "1990": "内饰", "517": "免费", "519": "英国", "9559": "农机", "10482": "侵华", "521": "竟然", "3173": "参议员", "6210": "距", "1066": "唯一", "6686": "竞争力", "629": "刘", "522": "今日", "9078": "拖", "999": "全部", "523": "股市", "3827": "扩大", "1799": "2017", "14910": "丰满", "14544": "男队", "1097": "海军", "524": "机场", "530": "点", "2756": "火山", "2813": "阴阳师", "15364": "玉帝", "6620": "危房", "1581": "公路", "2776": "盟友", "10009": "疯抢", "976": "业务", "3483": "510", "7386": "发酵", "531": "第三", "14857": "TNT", "17339": "浇", "9966": "显著", "3183": "武术", "5626": "撒", "532": "能力", "13755": "暧昧", "4853": "低配", "1087": "有些", "8614": "民歌", "533": "山东", "534": "至", "2699": "心理", "10651": "残疾人", "13383": "IG", "966": "重磅", "11222": "陌生人", "951": "体育", "8375": "斯大林", "2355": "保时捷", "1883": "复联", "10645": "档案", "6185": "漫画", "6065": "汉服", "536": "多久", "2726": "当初", "4625": "手术", "3074": "船", "6885": "五小", "2709": "融合", "594": "先", "7950": "审核", "993": "房贷", "537": "人生", "6174": "斯柯达", "8784": "商务车", "882": "超越", "12084": "盗刷", "1893": "都会", "10685": "玩坏", "11213": "锂", "2622": "减少", "539": "产业", "16080": "张智霖", "1863": "高端", "677": "好看", "16380": "约瓦", "858": "期待", "540": "老公", "9534": "一体化", "13041": "政变", "17352": "淡季", "1029": "50", "933": "车型", "2037": "均", "541": "总", "542": "照片", "4078": "石头", "11773": "七十", "15104": "守约", "601": "招", "4630": "标致", "2557": "央行", "543": "妈妈", "2131": "传", "4652": "马德里", "9242": "中级车", "8014": "深海", "6190": "特长生", "544": "这里", "3577": "排位", "2651": "回复", "13952": "跪求", "545": "如此", "1494": "传奇", "9555": "停车位", "4310": "服装", "547": "股票", "16569": "陨落", "1398": "500", "1187": "留", "548": "轮", "6928": "小编", "3093": "德比", "1711": "反", "2522": "圆满", "14643": "薪续", "11034": "打掉", "11171": "董洁", "550": "广州", "552": "千万", "1861": "茶", "15621": "随处可见", "7114": "无耻", "553": "希望", "12772": "4日", "8437": "老是", "557": "并", "3429": "打电话", "6977": "爱奇艺", "12592": "盒马", "10841": "get", "6008": "亦", "1014": "男子", "10447": "FF91", "4595": "6日", "558": "颜值", "9521": "54", "6483": "决心", "8524": "全开", "915": "数学", "1887": "就要", "559": "低", "7397": "回报", "13765": "杜月笙", "2478": "跨界", "782": "香港", "13685": "情歌", "5995": "L", "739": "8日", "1394": "腿", "5615": "妻", "562": "自动", "9635": "广播", "8395": "江西省", "2307": "加密", "6599": "上亿", "563": "LOL", "9221": "23:30", "564": "古代", "674": "阿里", "13375": "BX6", "6970": "没戏", "568": "4月", "11731": "齐白石", "5608": "团体", "570": "出炉", "792": "梦想", "2366": "课堂", "818": "导演", "13581": "嘻哈", "1143": "优秀", "3407": "选秀", "3071": "牌子", "3150": "内部", "16486": "越位", "619": "互联网", "13178": "第十五", "14668": "说不久", "4137": "街", "678": "乡村", "1627": "这位", "575": "重庆", "2988": "营养", "4263": "杨洋", "576": "真正", "13523": "动武", "15572": "远洋", "13707": "承德", "4455": "铭文", "986": "百", "15198": "投下", "578": "购买", "1038": "面对", "13395": "XQ", "3926": "农民工", "579": "么", "3481": "预告", "16129": "扭亏为盈", "824": "红", "11408": "好日子", "2319": "人们", "581": "范冰冰", "5710": "夜间", "583": "赚钱", "16703": "[", "1408": "主帅", "2168": "苏州", "1183": "借", "15292": "林地", "7017": "韩国人", "3082": "买到", "15452": "罗萨战役", "17112": "张碧晨", "16496": "车行", "675": "马化腾", "585": "表现", "10225": "封锁", "1842": "大型", "3049": "躺", "586": "京东", "11492": "抱歉", "17181": "抢到", "4827": "蚂蚁", "588": "结果", "5198": "岛屿", "2106": "手动", "589": "赵本山", "6924": "密集", "8571": "年会", "593": ":", "8161": "开放日", "15837": "光荣", "4380": "策划", "14415": "文娱", "2714": "风口", "9612": "婚房", "8146": "好汉", "4390": "长码", "595": "德国", "4249": "国民", "15903": "单刀", "2288": "26", "2302": "网站", "3509": "然后", "598": "奔驰", "3142": "附", "15868": "凯锐", "6048": "工艺", "16302": "王志文", "10965": "大半", "2086": "裙子", "9110": "洗白", "3846": "马力", "600": "全面", "4202": "战力", "10522": "后赛", "1046": "一家", "2403": "极限", "3566": "因此", "602": "李", "1549": "走势", "14763": "青年节", "603": "表示", "14448": "杜绝", "7237": "太平", "2749": "态度", "13926": "虫害", "2318": "80", "947": "对比", "4774": "10大", "14621": "脆皮", "13273": "逃亡", "780": "七", "7322": "进出口", "13661": "平底", "3367": "无锡", "5155": "附股", "5724": "弹道", "607": "当年", "608": "今天", "13964": "违反", "855": "传统", "2267": "科目", "2215": "来说", "609": "粉丝", "4123": "文件", "610": "推出", "11474": "微信群", "15491": "葛", "1690": "一切", "940": "持续", "2268": "赢家", "5333": "下午", "8233": "老帅", "3951": "理论", "1085": "20万", "611": "国", "8267": "高超", "2072": "首届", "612": "如", "9081": "换代", "11606": "离谱", "15922": "口香糖", "8169": "惨淡", "13549": "叒叕", "1034": "排", "620": "关注", "1391": "16", "10086": "陆地", "6077": "立夏", "995": "女神", "4721": "丝博会", "8353": "开测", "15344": "漓江", "621": "女子", "622": "毕业", "2415": "共同", "16453": "西红柿", "4492": "总部", "985": "温暖", "11868": "听力", "624": "直播", "626": "啥", "1289": "女排", "627": "实现", "9643": "总师", "7524": "60年", "1675": "方便", "1568": "QQ", "630": "泰山", "11454": "帽", "2572": "随", "5907": "大军", "14184": "出招", "16299": "猝不及防", "3693": "卡罗拉", "6439": "购车", "10079": "银保", "664": "仍", "8558": "字母", "11580": "生态链", "1129": "股东", "11445": "尼日利亚", "631": "联赛", "15996": "奇幻", "844": "连续", "4041": "相声", "632": "跑", "3581": "演绎", "634": "开车", "2234": "狂", "14036": "魔术师", "12924": "埃尔克森", "13444": "了却", "636": "上港", "5659": "话题", "15085": "奇招", "15949": "嘴巴", "9546": "产妇", "773": "对于", "637": "价值", "9986": "母女", "4129": "矛盾", "3139": "虎", "8867": "玄机", "13367": "650", "7328": "隔音", "638": "秒", "12739": "香饽饽", "2075": "包", "639": "听", "640": "惊人", "15647": "骂声", "6091": "诸葛亮", "641": "完成", "772": "农业", "5853": "私家车", "6018": "全身", "11154": "美出", "721": "感觉", "8042": "经费", "13459": "低开", "1573": "101", "13068": "李玉刚", "5612": "大一", "2430": "基于", "11173": "蔚来", "642": "最新", "3722": "进去", "17409": "皓", "5088": "关心", "8717": "4.0", "15791": "争端", "774": "男人", "11696": "重病", "5703": "名宿", "643": "集团", "2859": "李小璐", "13409": "七旬", "1837": "以为", "647": "计划", "14191": "制止", "2790": "公鸡", "16995": "大兴", "649": "车主", "2347": "明显", "3694": "古人", "12126": "美系", "4122": "拍戏", "7071": "合", "4573": "温泉", "3916": "轰20", "912": "举办", "17230": "无力回天", "4744": "念", "4072": "招募", "4211": "演练", "2034": "充电", "3401": "神车", "651": "欧洲", "3321": "女朋友", "5682": "WiFi", "2941": "蔡", "1150": "基金", "652": "首次", "7346": "C1", "1942": "出手", "11531": "晚餐", "6569": "肥料", "1617": "提供", "2713": "隐身", "736": "用户", "12939": "天真", "2182": "回忆", "653": "背后", "6841": "节目组", "2948": "从未", "1266": "百万", "8910": "补充", "657": "方式", "2919": "中期", "661": "除了", "665": "千", "12694": "跳楼", "666": "笑", "8458": "跟踪", "13708": "抛开", "4836": "雨欣", "17625": "轮子", "3941": "抓住", "669": "网络", "6192": "看中", "3859": "姓", "8035": "瞩目", "670": "中国人", "672": "离婚", "5306": "苏军", "2822": "出台", "15142": "巨龙", "13814": "混凝土", "5404": "郎平", "5253": "任天堂", "2928": "子女", "13066": "权重", "14610": "翻脸", "902": "杀", "16268": "淡雅", "6955": "效益", "3720": "过户", "4439": "终极", "673": "足球", "3493": "外汇", "4472": "估计", "676": "这次", "5935": "池", "1642": "河北", "7543": "产能", "4901": "艺人", "679": "二战", "3469": "满意", "17329": "泣不成声", "680": "警告", "8026": "牵", "7843": "白裙", "1844": "指", "8584": "惊呆", "14072": "CCTV5一", "1761": "度", "2819": "优质", "6950": "接入", "681": "还要", "5979": "陪伴", "15366": "玉笛", "870": "幸福", "11387": "地雷", "682": "您", "685": "看完", "4618": "带队", "4182": "PC", "11923": "广泛", "14355": "怀抱", "14152": "侧记", "756": "教练", "11317": "催生", "9254": "体育场", "11645": "艳星", "686": "霸气", "2794": "引领", "7839": "现如今", "688": "老婆", "1653": "保持", "7667": "美联储", "1379": "歌", "888": "土地", "2759": "致富", "4733": "季节", "4255": "宾利", "692": "获得", "694": "成绩", "14343": "开拓者", "6437": "谁家", "9253": "低头", "700": "15", "14502": "游戏机", "7980": "护照", "704": "需", "5313": "起降", "705": "官方", "708": "不停", "15323": "求学", "4903": "设立", "1487": "土耳其", "6282": "抉择", "710": "赔", "711": "启动", "9537": "三十万", "13501": "农商", "5740": "物价", "2802": "烧烤", "2428": "优雅", "3011": "画家", "8304": "助农", "10512": "原生态", "4280": "铁路", "1017": "制裁", "2260": "感动", "8189": "春耕", "1185": "投给", "6459": "龙岩", "712": "四川", "14916": "乱世", "1361": "力量", "713": "第五", "786": "增长", "8926": "这儿", "715": "每", "2996": "一战", "2290": "利润", "11123": "破裂", "716": "版", "2330": "挺", "14470": "武里", "717": "管理", "3044": "男星", "1625": "练", "834": "名单", "8570": "帮手", "3450": "黑人", "3467": "时机", "1630": "二手车", "7024": "20多", "12149": "蚂蚁金服", "7064": "单独", "14436": "月领", "2341": "员工", "2342": "品质", "6005": "乌鲁木齐", "15454": "美人风", "718": "营收", "719": "技巧", "1663": "夫妇", "2899": "各地", "12422": "就位", "15773": "丝丝", "722": "电商", "6912": "周一", "797": "达", "3326": "当选", "723": "超过", "9860": "占地", "12350": "哭泣", "15603": "锤", "2707": "猫", "726": "支付", "1759": "树", "4905": "跌停", "3130": "收获", "5633": "格斗", "727": "真实", "10736": "菜市场", "4383": "茶叶", "4420": "底", "2211": "反应", "1239": "方舟子", "730": "简单", "7078": "大屏", "839": "欢迎", "1973": "措施", "1439": "15万", "7952": "宪华", "6451": "面包车", "732": "天津", "16371": "答辩", "2231": "挖", "1965": "一代", "734": "高速", "1936": "稳", "10136": "下半场", "741": "差距", "2282": "差点", "16276": "湾区", "14235": "吹捧", "1945": "女乒", "1619": "讲", "1292": "风暴", "6256": "启程", "1901": "观众", "1227": "杨", "745": "远", "14392": "捐献", "2038": "培养", "1278": "动作", "15665": "116", "3274": "舞台", "805": "信息", "4798": "妙招", "2845": "逆转", "15353": "爱信", "5843": "武松", "746": "攻略", "749": "战略", "2590": "订单", "10678": "特质", "6667": "此人", "1832": "研究生", "753": "10万", "4013": "凤凰", "1360": "零售", "755": "导致", "9830": "亚丁", "1698": "武装", "759": "怕", "11196": "轰", "16961": "图像", "1859": "程度", "8160": "底线", "9953": "接下", "15815": "体型", "13772": "标识", "761": "金融", "12256": "YTG", "12691": "趴", "14767": "韦", "14722": "酒吧", "7287": "现车", "11119": "相互", "7266": "早点", "13281": "部位", "918": "只能", "764": "建议", "12262": "万里眠", "8582": "恐慌", "765": "坦克", "13721": "排序", "766": "建设", "767": "泰国", "1128": "秘密", "2110": "签", "926": "省", "2227": "史", "9922": "开门红", "7143": "福克斯", "768": "击落", "4372": "清风", "770": "超级", "8876": "瞎子", "1979": "澳大利亚", "771": "变成", "4617": "差异", "3145": "41", "13855": "碰上", "1839": "受伤", "776": "贵州", "5852": "离职", "10427": "首周", "1427": "山西", "8249": "趁", "9498": "预定", "6878": "万物", "1937": "费用", "7756": "哈哈", "8599": "早盘", "1020": "谷歌", "778": "婆婆", "10977": "安置", "781": "支", "3488": "免战牌", "787": "懂", "10252": "打铁", "16707": "cba", "7492": "记录仪", "789": "创新", "12945": "奥迪Q3", "4107": "包括", "791": "行情", "15805": "令狐", "1276": "人物", "795": "万", "13425": "不许", "798": "一般", "2932": "无数", "803": "政府", "3604": "出海", "2117": "回国", "3301": "翻译", "804": "18", "808": "配", "4068": "思想", "1929": "重回", "867": "日子", "15680": "2:2", "3847": "马苏", "9471": "谁知", "11683": "近年来", "14019": "颜真卿", "14084": "Word", "5419": "力挺", "3547": "率先", "812": "楼市", "7271": "曝出", "813": "芯片", "1396": "记", "10193": "各类", "14174": "养牛", "1334": "大数据", "1165": "揭秘", "17056": "富德", "814": "读", "7091": "幼儿", "14786": "马航", "4422": "形势", "10838": "Pay", "817": "周年", "6948": "挤", "4700": "笑容", "2065": "先生", "6767": "后续", "16228": "死伤", "4602": "公众号", "1613": "过去", "819": "版本", "7695": "金立", "2236": "积极", "4938": "回去", "997": "申请", "9825": "主战", "820": "MSI", "3883": "高原", "5921": "打架", "822": "大战", "930": "水", "1993": "威胁", "1006": "酒店", "823": "破", "6021": "军民", "913": "女人", "826": "通过", "846": "打开", "14457": "梦奇", "1567": "重新", "2220": "资本", "5583": "wifi", "13730": "摘帽", "2077": "大国", "6426": "答题", "827": "一怒之下", "8731": "上来", "830": "对此", "1407": "中小学", "4400": "不容", "831": "货币", "3712": "精选", "6753": "公牛", "4443": "获取", "15867": "凯尔特人队", "5188": "各位", "832": "越南", "16481": "走高", "11418": "学术", "13055": "普吉岛", "6238": "介入", "833": "做到", "14703": "违停", "837": "落地", "5058": "逾期", "2751": "春季", "838": "有的", "14831": "7500", "5910": "姓氏", "5905": "塑料", "14372": "扩张期", "840": "股", "2733": "王朝", "6637": "套装", "4813": "热情", "843": "容易", "8040": "红魔", "850": "配置", "4461": "30岁", "851": "高校", "4649": "销售额", "12108": "粉丝们", "14949": "侧颜", "853": "实用", "4508": "欧美", "854": "放", "7741": "分区", "4952": "日记", "14023": "飞翔", "11825": "养花", "13674": "当事人", "4330": "通道", "3770": "音响", "6150": "差不多", "11447": "屏下", "861": "美女", "2160": "呀", "2967": "租", "5649": "疼", "12120": "续集", "868": "行为", "6609": "六月", "10449": "LG", "862": "跌", "864": "丨", "3277": "退伍", "12098": "福原爱", "865": "人工", "11760": "HTC", "5200": "怪不得", "1451": "或者", "11037": "承压", "7218": "及其", "866": "房产", "14126": "产销", "12643": "联考", "7890": "3:1", "16605": "高大", "5175": "全军", "2024": "半年", "14342": "建新", "4614": "天王", "1548": "美食", "7301": "等等", "3212": "艺术家", "14025": "马可", "869": "不过", "7923": "加上", "873": "来袭", "874": "杨幂", "4000": "降级", "4117": "大胜", "2402": "日产", "875": "媒体", "14254": "在乎", "4199": "录制", "3462": "弱", "10673": "燃烧", "12810": "上下班", "1603": "追", "878": "娱乐圈", "11666": "解禁", "6382": "女足", "1327": "信", "4794": "大力", "1133": "以上", "7936": "国内外", "14626": "舟山", "2468": "张杰", "879": "斤", "1062": "朋友圈", "883": "中学", "1019": "老人", "2538": "出场", "5204": "播出", "885": "红毯", "10749": "许晴", "5808": "外交部", "8282": "乘坐", "887": "公开", "6099": "追捧", "3850": "出租车", "1561": "亮", "889": "女星", "11094": "深层", "11381": "四六级", "12123": "罚球", "3523": "陷阱", "7935": "吸", "5453": "班级", "904": "性能", "13621": "嫁人", "14743": "阿莱格里", "890": "必", "2036": "凯西", "891": "非常", "14199": "功不可没", "7510": "马尔代夫", "901": "微博", "12786": "FPS", "3432": "月色", "3241": "感恩", "8296": "内涵", "7668": "脱", "905": "收入", "2170": "辞职", "9965": "春景", "909": "块", "14064": "6000万", "3269": "特点", "13830": "现阶段", "16304": "珅", "1317": "介绍", "910": "改变", "911": "部队", "916": "神器", "6797": "拳", "11197": "轰-20", "3111": "面子", "14989": "击倒", "12038": "泛滥", "1723": "庆祝", "917": "上榜", "1558": "阿里巴巴", "2867": "baby", "934": "青岛", "920": "架", "8566": "巧合", "4583": "程序员", "3008": "没用", "923": "手", "16579": "靓", "925": "现", "2873": "场景", "4373": "激烈", "2237": "紧急", "9952": "捷报", "928": "干", "1680": "涨价", "2030": "爱车", "16130": "扭矩", "4297": "四月", "8586": "房东", "12877": "出场率", "2081": "广告", "4551": "名将", "9682": "朋友们", "929": "哭", "16021": "孰", "931": "问", "16128": "扬帆", "3203": "把握", "6980": "病毒", "936": "机构", "16688": "Jasper", "9481": "过瘾", "1400": "人民", "937": "活", "4807": "无线", "938": "瞬间", "2975": "传承", "941": "横扫", "9997": "炒房", "7528": "Khan", "942": "信用卡", "13843": "盗用", "944": "建", "1486": "出行", "10509": "升学率", "2459": "出口", "4852": "伦敦", "945": "结束", "5226": "翻拍", "13168": "秦岚", "1854": "国安", "6961": "有利", "1923": "走向", "946": "对手", "3062": "好不", "948": "接受", "954": "玉米", "13961": "这边", "3365": "意见", "13402": "you", "8103": "做客", "963": "交通", "7419": "强力", "4912": "集市", "956": "南京", "3532": "出轨", "12097": "禁令", "9244": "乡愁", "957": "应用", "7037": "下调", "8429": "红蝶", "3489": "冲刺", "959": "训练", "4851": "价", "10666": "涨到", "960": "其实", "3841": "西南", "2983": "推广", "9021": "呆萌", "1881": "脚", "1078": "五大", "4513": "理科", "2737": "直", "961": "时尚", "15488": "落入", "1190": "领域", "1681": "独立", "7399": "在于", "13925": "虐恋", "3397": "村庄", "14416": "文筱婷", "962": "离开", "1920": "生意", "2609": "舒适", "1001": "答案", "12233": "4%", "1480": "小区", "967": "项", "6803": "搭建", "975": "预测", "1971": "害怕", "17704": "霞", "3651": "启用", "977": "家庭", "8198": "棉花", "5342": "召唤", "979": "海南", "5061": "那种", "3849": "决赛圈", "6057": "抵", "8610": "欧阳娜娜", "2316": "说话", "16316": "畜牧", "2351": "记者", "1727": "评论", "980": "中东", "1363": "研究", "11385": "围赛", "6198": "绑定", "1146": "十足", "17146": "情景", "6258": "吸睛", "1355": "角色", "4048": "500万", "14568": "社保卡", "982": "抢", "16424": "艾瑞泽5", "987": "加入", "7440": "推介", "991": "11", "992": "代", "12654": "茅台酒", "996": "猪", "11721": "韵", "8025": "牛市", "998": "错过", "1004": "完美", "1399": "主要", "2256": "实在", "1005": "艘", "10835": "IOS", "9227": "96", "3785": "大S", "4548": "创业者", "16834": "光线", "11833": "分解", "3394": "新作", "1008": "豪华", "1304": "经历", "14095": "上半年", "13022": "护", "1175": "开发", "11604": "票价", "14859": "UFO", "1009": "疯狂", "6500": "大地", "1011": "开放", "12273": "主板", "9400": "燃", "7929": "友情", "3507": "模仿", "1013": "淘宝", "1015": "目标", "13531": "包车", "5711": "天际", "14247": "四溢", "1016": "其他", "14109": "中奖", "1021": "鲁能", "15210": "拖垮", "7540": "之际", "1250": "们", "16160": "掠夺", "1024": "无法", "5451": "温柔", "8371": "播报", "1025": "杭州", "1026": "生", "11221": "阿尔维斯", "2833": "怒怼", "1641": "夫妻", "1027": "突破", "3732": "三千", "11355": "博瑞", "1028": "能够", "10876": "会谈", "8217": "留守", "9270": "军力", "1030": "~", "1075": "三年", "11774": "万一", "1032": "年前", "1387": "资源", "1033": "总裁", "1035": "融资", "10368": "认得", "12154": "装上", "6496": "呆", "3332": "挂出", "1036": "装", "1037": "调整", "3354": "亚洲杯", "15327": "洋河", "5321": "韩服", "13795": "水果店", "1970": "大规模", "1506": "中考", "1044": "地区", "6336": "马自达", "2069": "逆天", "1040": "9日", "5664": "边缘", "1855": "国足", "1041": "今后", "8001": "柳影舞", "13529": "勤奋", "3468": "月入", "8642": "离场", "9457": "蒙古", "12004": "月下", "1042": "套路", "13453": "亲家", "15083": "失落", "1043": "吉利", "15172": "心愿", "8116": "区间", "1047": "最多", "2363": "甄嬛", "2888": "限购", "1049": "谢娜", "8858": "渴望", "9490": "链接", "11743": "175", "10221": "审判", "2554": "前瞻", "6701": "装修", "13173": "突袭", "9677": "春江", "1804": "哪家", "1050": "世乒赛", "12651": "英伟", "13583": "四万", "1738": "少年", "11479": "总数", "1052": "妻子", "15727": "PUBG", "17190": "拿证", "6244": "债券", "17380": "爆火", "1054": "应对", "2493": "斯诺克", "11761": "ICO", "6542": "无力", "2096": "票房", "1056": "风险", "12580": "王道", "1058": "期", "6380": "大将", "2512": "监管", "1060": "亩", "1061": "总决赛", "6716": "采购", "1064": "—", "2368": "逻辑", "2044": "油价", "7897": "一同", "1067": "理财", "1068": "重点", "13940": "诸葛", "5307": "荣誉", "12787": "G级", "3248": "混动", "1070": "篇", "3635": "踢球", "12819": "中国式", "15208": "拆开", "1783": "过程", "8877": "碎片", "1071": "自主", "3299": "社区", "14018": "领悟", "1073": "摩托车", "1275": "不断", "4034": "日系车", "7131": "热火", "16192": "春花", "1074": "真相", "1077": "油耗", "2045": "航空", "8253": "迟迟", "5090": "净", "1366": "商业", "3983": "新城", "1801": "一大", "1079": "假如", "3059": "天气", "2407": "每月", "6492": "台下", "12769": "40亿", "1080": "入手", "3119": "北方", "7624": "文学奖", "4016": "协会", "1083": "社会", "1290": "约", "1086": "想到", "3205": "灿烂", "1088": "死亡", "15295": "染", "8018": "潇洒", "3287": "升值", "4966": "监控", "1089": "处理", "10837": "PPT", "1090": "气质", "7636": "棺材", "1092": "出去", "2218": "肯定", "2585": "毛", "9207": "风舞", "7908": "伪", "1093": "西部", "3245": "朗逸", "11450": "崩塌", "1094": "人员", "16931": "吃货们", "3435": "武警", "1095": "神秘", "1787": "篮球", "1096": "动力", "3355": "北斗", "7678": "调", "15429": "精英版", "4301": "天地", "3126": "对象", "1098": "游", "1236": "巴萨", "1101": "性价比", "15523": "误判", "6184": "漏洞", "2862": "福特", "1106": "微软", "9479": "超出", "13696": "战后", "1721": "外", "2173": "长城", "6838": "耳机", "3070": "澳洲", "1107": "无人机", "9518": "40多", "1154": "吨", "11391": "基石", "1108": "春风", "1110": "若", "3884": "2.0", "1111": "民间", "6112": "住宿", "8407": "灌篮", "1112": "五月", "1113": "娶", "1341": "头", "15948": "嘉善", "1115": "不住", "1285": "核心", "4943": "妇女", "7454": "桃花", "16235": "毕业照", "1116": "大连", "1872": "70", "12686": "赠", "6816": "洛瑞", "1117": "事情", "1119": "进口", "9385": "没关系", "1120": "部分", "7473": "短板", "1644": "生涯", "1779": "崛起", "15426": "篮球赛", "11170": "营造", "1121": "央视", "12990": "弟媳", "13953": "路面", "2032": "购房", "16383": "纵财", "4092": "飙升", "3480": "韭菜", "7849": "碧峰", "7149": "经济体", "10185": "反感", "15926": "右转", "1122": "收藏", "2690": "违规", "1329": "吐槽", "6004": "举目四海", "2908": "有没有", "9970": "有才", "1123": "理解", "1124": "科比", "2799": "或许", "12391": "太湖", "14871": "――", "1244": "总理", "13451": "五代机", "7194": "主", "5779": "亚索", "1125": "穷", "1362": "召开", "9785": "陈奕迅", "3794": "星", "7564": "分布", "1126": "快速", "1127": "智慧", "5665": "过分", "1130": "认识", "2323": "变身", "2375": "古镇", "6782": "宣传片", "17250": "暴瘦", "1132": "鹿晗", "10400": "镖客", "17248": "智利", "1134": "地位", "7260": "按钮", "1135": "学院", "16873": "刺杀", "5704": "吴昕", "11702": "铁血", "2525": "法律", "15070": "外孙", "1137": "帅", "1880": "综合", "13415": "上合", "1138": "广东", "17150": "惠", "3684": "举动", "4054": "不及", "1139": "心", "10588": "彼此", "7644": "济宁", "1140": "黑", "5356": "平稳", "16211": "枭雄", "1147": "欣赏", "6202": "蜕变", "12117": "经贸", "1149": "100", "1151": "考研", "15219": "捅", "7994": "暴雪", "1243": "刚刚", "1546": "掌握", "1152": "长安", "3766": "车上", "7632": "本科生", "6136": "国会", "4841": "13万", "11987": "新华社", "14027": "马自达CX-4", "1153": "iPhone", "7768": "学徒", "15715": "EV", "1155": "清华", "1772": "杨元庆", "1214": "只要", "1156": "特别", "1157": "象棋", "15632": "青龙", "3411": "防治", "15464": "肩负", "1158": "\"", "7163": "警示", "8418": "看上", "8794": "大姐", "3927": "前后", "1159": "脸", "6268": "大面积", "16179": "新锐", "15832": "元凶", "1947": "妈", "2881": "皮", "1160": "净赚", "13915": "获准", "14547": "疲劳", "7007": "部落", "1161": "10年", "6790": "影视剧", "3729": "120", "14120": "书藏", "1162": "VS", "11050": "推销", "1163": "共享", "4506": "机型", "3025": "发挥", "8828": "放大", "1164": "年轻", "1498": "画", "1166": "男", "13242": "说到", "10586": "彦", "1167": "队", "1169": "士兵", "12073": "瓜迪奥拉", "16743": "专心", "6406": "比分", "13837": "留意", "2946": "走红", "1174": "各国", "17328": "法系车", "1176": "时期", "16238": "水军", "11739": "13号", "6128": "华丽", "1177": "轿车", "6145": "完爆", "1583": "球衣", "15800": "今晨", "1178": "击败", "17685": "门锁", "7717": "JR", "1216": "藏", "12789": "Linux", "1179": "意外", "11631": "老妈", "1180": "早", "7640": "母爱", "1196": "云南", "1181": "此", "17550": "萌新", "14164": "全速", "3966": "出演", "7619": "抢占", "13121": "热车", "1182": "淘汰", "7446": "收割", "3458": "动态", "1186": "生日", "1188": "称为", "3510": "狠", "2828": "女兵", "10528": "呼之欲出", "3083": "五千", "1365": "单位", "5887": "公交车", "2337": "身份", "1192": "家里", "15977": "大意", "11313": "保卫战", "15152": "并入", "1193": "愿", "12516": "李秋平", "10955": "土豆", "8098": "低保", "1540": "道歉", "2830": "家用", "11064": "旅行社", "7732": "他国", "2434": "报考", "1197": "公务员", "2122": "特斯拉", "1252": "伤害", "2765": "预期", "17191": "指尖", "1198": "城", "15730": "ST尤夫", "8843": "步骤", "1199": "天下", "1200": "意义", "6932": "常任", "1201": "指数", "10356": "腻", "6201": "而言", "13272": "适当", "6385": "婚纱", "3375": "起步", "9593": "四方", "2210": "鱼", "1815": "声明", "3018": "余", "1202": "欧冠", "3208": "砍", "5662": "赶超", "1203": "电视剧", "1204": "位置", "5128": "热度", "3010": "王俊凯", "1206": "西藏", "8493": "Apple", "1207": "诗", "1208": "非", "5212": "梅德韦杰夫", "11943": "怠速", "1912": "100万", "1664": "属于", "4213": "皇上", "10718": "经销商", "5896": "反对派", "1211": "爱情", "9334": "康复", "2856": "富人", "1212": "自", "7406": "姑子", "3824": "城区", "16167": "摊牌", "6177": "有限公司", "8197": "标签", "1636": "领先", "2142": "风光", "6956": "新低", "7199": "人品", "1213": "·", "1335": "经常", "1514": "搞", "1624": "空姐", "2130": "会议", "1215": "宝骏", "3433": "桂林", "9597": "堵", "8737": "为人", "1217": "人类", "3042": "理想", "1931": "不仅", "12202": "降准", "1218": "假", "6551": "渭南", "16350": "神2", "1220": "最终", "15359": "狂欢节", "1221": "纪录", "11582": "由于", "7888": "23万", "1994": "存款", "1222": "错", "9620": "家长会", "12664": "蓝海", "1995": "月薪", "1614": "17", "4035": "早已", "11502": "掌声", "4212": "狼", "1223": "加盟", "15271": "晋", "1782": "跑男", "1413": "各种", "2976": "内存", "1224": "大象", "1225": "拿到", "1228": "亏损", "12576": "猎鹰", "6012": "体现", "1229": "战斗", "16904": "卫衣", "14560": "瞄准镜", "1230": "报告", "2406": "樱桃", "5986": "1.6", "4418": "师", "8917": "详情", "10921": "发博", "1233": "狗", "5645": "瀑布", "3933": "宁夏", "1234": "联合", "7344": "ADC", "3530": "具有", "1870": "库里", "6200": "老农", "1235": "培训", "1237": "年级", "14160": "傲", "2255": "头条", "12305": "军售", "2187": "数", "1987": "CF", "1238": "报名", "1240": "源自", "1242": "依然", "10978": "宋仲基", "5096": "办公", "1245": "收购", "11026": "恩怨", "1247": "测试", "1248": "全场", "1249": "喝", "10163": "出世", "8016": "清代", "8929": "造就", "12010": "李清照", "2938": "破解", "1465": "女生", "7269": "星球", "16036": "小升", "1251": "优惠", "11014": "德国队", "14441": "木头", "4195": "小时候", "13292": "长跑", "2534": "一万", "5035": "沉默", "8400": "流浪", "1253": "办", "5311": "购", "1254": "广西", "1758": "战术", "1566": "荒野", "2511": "收到", "1255": "站", "6868": "齐达内", "1258": "拟", "4922": "临沂", "2013": "中华", "1259": "方面", "5581": "EDG", "1885": "大概", "2322": "加油", "1260": "电子", "15487": "萧敬腾", "6029": "吉林", "12548": "法定", "14758": "零花钱", "1263": "凯尔特人", "6134": "吴磊", "5643": "湿地", "1846": "精准", "10353": "翡翠", "1265": "男友", "1269": "有点", "3037": "拯救", "16185": "无工", "2715": "京", "1271": "满", "8683": "资质", "1272": "电动", "3909": "滴", "4313": "正面", "3936": "开工", "3197": "孙悟空", "1274": "OPPO", "1279": "实施", "1281": "权利", "1586": "诗词", "4864": "向上", "15167": "往后", "1283": "选手", "1284": "感受", "9212": "高呼", "6871": "EVS", "1286": "状态", "7228": "国宝", "10424": "风摆", "7381": "副本", "1287": "电视", "9718": "眼球", "2454": "赛事", "11424": "宝好", "1651": "陕西", "2923": "倒", "1291": "迷你", "15666": "12月", "5575": "顿", "1295": "想要", "1296": "成立", "8562": "宠爱", "1298": "记得", "3890": "丢失", "14131": "人情", "3054": "前往", "3779": "众泰", "1299": "郑州", "1300": "集体", "1402": "消失", "1303": "研发", "10552": "姚", "5630": "曹", "1305": "飞", "3134": "棵", "17172": "打人", "1307": "阵容", "7411": "室友", "1939": "一线", "6696": "股神", "1710": "厦门", "8848": "求助", "1308": "凭", "12818": "丧心病狂", "1311": "拍照", "3077": "逾", "2422": "锤子", "3627": "草渡", "16049": "左脚", "7367": "众星", "11826": "冲超", "2148": "小学生", "1312": "旅", "3860": "导师", "7182": "56", "1313": "记录", "8377": "新篇章", "5314": "身份证", "1314": "靠谱", "12432": "年中", "3179": "户型", "1319": "效果", "16283": "火海", "15982": "大赞", "7023": "180512", "1321": "生态", "3292": "拦截", "1322": "穿越", "2594": "估值", "14331": "布达拉宫", "1323": "风景", "11417": "学业", "1324": "高手", "1592": "安徽", "1326": "九", "12225": "黎", "12661": "蒜", "11264": "CVT", "1328": "努力", "2600": "归", "1330": "新手", "9981": "桑塔纳", "8778": "名称", "1351": "战队", "7327": "限价", "5006": "好事", "3981": "招商", "7737": "农家", "7277": "汇", "3304": "认", "16535": "郭碧婷", "2544": "户口", "4831": "超车", "1331": "枚", "3376": "进军", "14787": "骤降", "7508": "首胜", "4635": "相机", "13019": "抄", "13152": "盆景", "7156": "致父", "1820": "搞笑", "14062": "5500", "1332": "音乐", "9348": "手软", "3991": "监狱", "1336": "其中", "17540": "苦短", "3844": "车标", "6913": "咨询", "4802": "形式", "1337": "按照", "1819": "店", "4250": "大长腿", "1338": "条件", "3484": "7日", "11762": "LGD", "3853": "发起", "1339": "亿", "8413": "瓶颈", "3131": "新区", "2101": "国服", "4446": "财务", "1340": "保护", "10492": "公海", "14089": "一律", "1342": "枪", "1445": "隐藏", "10614": "摊上", "5180": "加息", "1343": "梦幻", "6469": "lol", "5913": "小车", "15636": "颁发", "1344": "现实", "1345": "由", "15681": "2月", "12701": "过气", "14474": "民政局", "1875": "享受", "8101": "例", "12814": "不禁", "3784": "圈", "2850": "助攻", "1346": "速度", "6798": "挡车", "1347": "面试", "5396": "草", "3708": "理工", "14534": "琳", "7332": "飞天", "12453": "悬架", "16926": "可口", "1348": "人格", "2597": "姐妹", "1349": "后来", "6908": "右", "6857": "金州", "1857": "新房", "7912": "停播", "1449": "婚礼", "11021": "志愿者", "1350": "战胜", "7392": "吓到", "17679": "铺天盖地", "4309": "教训", "4135": "老汉", "14043": "＂", "2665": "识别", "5762": "转换", "11521": "族", "14527": "狮子", "5417": "侵入式", "1352": "扶贫", "4343": "全队", "2657": "改造", "5872": "魔王", "1353": "深", "10957": "在售", "11289": "专升", "6481": "军校", "2661": "续航", "11116": "目光", "1354": "组织", "5856": "纳入", "4592": "雷达", "1356": "下来", "10560": "定格", "15470": "舒适型", "16039": "小轿车", "1358": "复仇者", "13983": "重创", "7942": "天然", "2029": "滞销", "7268": "星星", "13775": "样样", "4469": "也许", "1444": "英", "1359": "改革", "1368": "APP", "3246": "机制", "1370": "新款", "7885": "1688", "15059": "堪", "1371": "电影节", "10360": "蛮", "4968": "章子怡", "13935": "触底", "4222": "财产", "1697": "根本", "7098": "感", "2276": "以下", "12175": "迎月", "5876": "=", "2575": "S11", "1372": "趋势", "5680": "CS", "1376": "层", "1378": "招聘", "3193": "判", "1999": "领导人", "2616": "邀请", "10346": "绿衫军", "1380": "降价", "1382": "之一", "1383": "亚洲", "1964": "运动员", "9805": "Met", "1384": "年轻人", "2156": "习惯", "16242": "汤唯", "11597": "瞒", "5936": "池塘", "1388": "改装", "8624": "炫酷", "1392": "发布会", "1395": "补贴", "13804": "活活", "7320": "躺枪", "7002": "车长", "2458": "主角", "3053": "做出", "1956": "8万", "4557": "奇怪", "1397": "重", "1600": "果树", "8038": "繁华", "5252": "人心", "4166": "杀害", "17725": "飞苍山", "7198": "五星", "6295": "暴增", "1403": "生产", "1962": "济南", "8821": "拉风", "3234": "品种", "9896": "女艺人", "17734": "骂惨", "2367": "跑步", "6567": "老爸", "1405": "退役", "9870": "同居", "12561": "漂流", "14228": "同类", "1410": "健康", "10423": "风动", "4379": "第几", "2882": "紧张", "9675": "星空", "1412": "号", "6988": "网吧", "2259": "徐", "15758": "万茜", "7905": "仙气", "12889": "千秋", "5134": "私募", "1414": "步", "1415": "江苏", "1699": "规划", "2190": "联手", "6873": "IP", "1417": "考虑", "1420": "地球", "1423": "事故", "10572": "山上", "4972": "诗人", "1424": "加强", "14817": "2万多", "14899": "业界", "9617": "宝来", "13901": "能手", "1597": "原创", "7603": "开封", "1425": "周琦", "8952": "高下", "5215": "清纯", "3977": "徒步", "1426": "山", "12016": "查尔斯", "5653": "糟糕", "1430": "詹皇", "5320": "问世", "1431": "造成", "14554": "相某", "2426": "下赛季", "11108": "班长", "12321": "刻", "1432": "压力", "10491": "八分之一", "10702": "短道", "10899": "分户", "9198": "难得", "1517": "神奇", "5551": "粤", "1436": "遇", "8841": "模板", "14100": "不一", "8835": "晓", "2028": "有效", "1437": "门票", "3772": "高管", "3967": "刘诗诗", "1438": "14", "11149": "缘何", "4425": "战狼", "8275": "一番话", "5660": "误", "1440": "增加", "1441": "打击", "2438": "继", "3243": "抵达", "1442": "文章", "12437": "张良", "6384": "娃娃", "11312": "保利尼奥", "1446": "非洲", "12764": "12亿", "6967": "桌", "10152": "侮辱", "1447": "人口", "1450": "完全", "10370": "试乘", "7047": "住建部", "5681": "Switch", "1452": "朱婷", "1453": "绝杀", "5746": "神仙", "1454": "身材", "1739": "炒", "9323": "家长们", "3267": "满分", "1458": "猪价", "2839": "目的", "5835": "换成", "1460": "亏", "1462": "年度", "1464": "证明", "1585": "解放军", "6532": "挖掘", "2357": "喊", "9134": "白人", "1466": "安卓", "1468": "得到", "1470": "抖音", "10561": "实景", "1471": "白", "1472": "精彩", "17006": "天差地别", "16001": "奥秘", "1473": "精神", "2104": "宁愿", "4082": "论文", "16038": "小微", "16902": "博眼球", "1564": "无限", "11877": "垮", "13728": "摇身", "5351": "小哥", "1474": "作战", "4276": "选股", "10529": "咱们", "1975": "火箭队", "12345": "吉他", "1726": "菜", "1510": "发文", "5965": "衰退", "9565": "分析师", "5981": "雨天", "1475": "别墅", "1476": "同比", "6660": "无聊", "13941": "调戏", "5889": "分分钟", "1968": "外媒", "1477": "细节", "3334": "搞定", "6144": "孤影", "1481": "热点", "6636": "大迈", "6203": "表彰", "1482": "衣服", "12026": "止损", "7613": "意甲", "3683": "上台", "6133": "后视镜", "2228": "奖", "1884": "多多", "8913": "西", "1483": "难道", "15450": "网曝", "3014": "3D", "1485": "事业", "2958": "实战", "4811": "混合", "1489": "时刻", "1490": "晚", "1493": "0", "9705": "演艺圈", "11976": "改口", "1496": "宣传", "8497": "LCK", "4265": "灵魂", "1497": "段", "2284": "控制", "7594": "宫本", "1499": "西游", "1500": "上演", "9778": "铺", "3735": "众泰T800", "2369": "长沙", "3252": "全力", "9912": "巧逢", "11885": "大巴黎", "9502": "饺子", "1503": "环境", "7422": "快本", "16120": "手头", "3514": "补偿", "8298": "刘若英", "7801": "早餐", "1504": "读书", "16293": "犯错", "1508": "判断", "12500": "旧金山", "1509": "危险", "7810": "极了", "1511": "可爱", "2532": "5.8", "15026": "可比性", "3791": "打扮", "14734": "银幕", "1512": "后果", "2764": "长大", "1513": "意愿", "1515": "爸爸", "2607": "笔", "1516": "球星", "7371": "倒下", "1519": "设置", "1520": "这才", "13553": "古村", "16914": "反野", "1521": "?", "15797": "五官", "7976": "手工", "1522": "大师", "5192": "国旗", "13449": "云端", "5043": "移民", "1525": "湖南", "1526": "看好", "1692": "余额宝", "4410": "哈弗H6", "2964": "抢镜", "1595": "6月", "8598": "旅行地", "2513": "罚", "9005": "削球手", "14990": "分段", "1529": "面临", "17523": "舔", "5944": "猛龙队", "4913": "面", "13722": "接地", "7096": "快要", "3731": "CS75", "1543": "60", "1530": "作用", "9960": "改嫁", "14558": "着装", "1531": "基本", "3335": "政治", "13048": "斯里兰卡", "4995": "劝", "13845": "真人秀", "3312": "suv", "7379": "初二", "1532": "子弹", "7150": "绝技", "1628": "郑爽", "8449": "补偿器", "1536": "动", "2048": "区域", "1537": "合同", "8735": "不曾", "5673": "韩剧", "16007": "如愿", "1539": "挂", "3842": "负责", "2095": "生物", "3742": "命", "1541": "限制", "2325": "周杰伦", "1542": "骂", "10543": "壳", "2960": "对待", "12930": "外衣", "3373": "表达", "1544": "依旧", "1551": "下降", "4320": "第4", "1552": "原油", "12867": "养儿", "6823": "理事国", "15761": "三板", "1553": "市", "2581": "增", "4900": "美貌", "1555": "永远", "10481": "侯耀华", "8211": "深圳市", "5750": "腰", "1754": "刘国梁", "4795": "大妈", "1556": "网上", "6259": "嘉兴", "2195": "十分", "13087": "武僧", "5173": "会见", "1559": "丈夫", "2496": "租房", "5457": "第10", "1949": "救", "8604": "机密", "16022": "安保", "1560": "不足", "4565": "打死", "12072": "瓜子", "1562": "天才", "3100": "牡丹", "3745": "小组赛", "1563": "收", "7060": "别样", "1570": "提出", "4450": "赶", "1571": "演技", "1574": "200", "1639": "人民币", "11569": "滨江", "1580": "KZ", "2520": "允许", "3340": "灯", "16123": "才女", "2372": "上场", "6096": "转变", "1584": "西方", "12946": "好感", "1589": "先进", "3593": "领衔", "17271": "杨嵩", "1587": "资产", "1591": "合理", "15266": "时报", "3447": "重建", "15010": "华硕", "16164": "措手不及", "4494": "战役", "1593": "消费", "7110": "效力", "14026": "马拉多纳", "5049": "职称", "1737": "交警", "6290": "摸", "15043": "哲理", "1594": "阅兵", "5839": "暖", "2637": "终", "15986": "天选", "17609": "起死回生", "9674": "明星们", "1599": "强国", "6595": "Letme", "1605": "飞行员", "3614": "有钱人", "8880": "禁区", "1845": "来自", "1790": "些", "12923": "埃博拉", "12487": "撞到", "2842": "英文", "12504": "是非", "8068": "门将", "16724": "七上八下", "1679": "流量", "1608": "唱", "1606": "30万", "1610": "大佬", "15737": "VV7", "8869": "用尽", "2390": "MVP", "8202": "氪金", "16646": "20000", "5607": "可不", "1611": "掀起", "11706": "闪电", "7729": "买套", "1612": "质疑", "1952": "海外", "3498": "工作室", "10631": "更名", "15864": "净身", "5152": "越野车", "13790": "歼15", "1615": "代表", "1618": "解读", "8071": "降温", "15614": "阿迪达斯", "1620": "反对", "4955": "根据", "16041": "少数民族", "1622": "必要", "3538": "外卖", "17376": "燃气", "1626": "而是", "8110": "出自", "1682": "争", "11334": "写给", "15957": "围点打援", "7493": "请求", "11400": "大巴", "1629": "19", "3639": "高兴", "1967": "养老", "11072": "本届", "1985": "运营", "4112": "古装", "3169": "买房", "1631": "任何", "2691": "难民", "8486": "350", "2018": "通知", "1632": "可怕", "1634": "语文", "10794": "陈晓旭", "7800": "无处", "8204": "污染", "1637": "骁龙", "3751": "整治", "1643": "演", "1645": "零", "6176": "晒照", "8977": "七绝", "1648": "女性", "7797": "施", "2250": "院校", "1649": "幼儿园", "14749": "随行", "7449": "数字化", "2413": "俱乐部", "12779": "9点", "15124": "小丁", "1654": "处", "5334": "佩服", "1655": "挡", "6001": "上任", "2183": "媳妇", "2700": "成员", "8206": "浓", "11098": "满月", "1656": "教学", "4527": "长相", "1657": "点赞", "1658": "绿军", "1659": "魔兽", "8051": "芜湖", "1660": "公寓", "1661": "嘉宾", "1665": "帅气", "3286": "利物浦", "1666": "年薪", "2083": "添", "1667": "房屋", "7769": "守门员", "3519": "邻居", "5917": "幸运", "1671": "致", "6674": "深交所", "7898": "上瘾", "15713": "DS", "2803": "物流", "9519": "41+7+10", "1673": "仪式", "1773": "每年", "12067": "王阳明", "14193": "刷脸", "1674": "批", "1691": "久", "13931": "袜子", "1676": "曝", "2151": "纯", "15102": "存单", "6510": "宠", "1677": "样子", "1678": "民族", "1684": "快乐", "13951": "跨过", "1685": "排行榜", "2487": "中介", "3891": "人造", "13779": "植保", "7202": "传播", "4832": "通话", "10897": "击", "2093": "必备", "14841": "LOGO", "1687": "至今", "1688": "解析", "2704": "沉没", "4584": "穿出", "1693": "再度", "1907": "对阵", "9850": "别国", "1694": "加拿大", "1695": "外观", "1696": "打破", "1700": "C罗", "3428": "快递", "4610": "否认", "3834": "汤普森", "7548": "侵犯", "2878": "户", "8499": "cf", "7882": "0.8%", "1702": "加速", "5233": "顶配", "1798": "11日", "1703": "古", "1705": "虎牙", "12354": "商贸", "1706": "13", "1708": "不错", "2945": "赢球", "2476": "网约车", "1712": "叙", "1713": "唐嫣", "17055": "密切", "5187": "台词", "11089": "油电", "6713": "连锁", "1714": "巨星", "2986": "用来", "17401": "画报", "12910": "启蒙", "2973": "7座", "12863": "公摊", "2926": "外国人", "3672": "贾静雯", "16469": "谢贤", "1716": "曼联", "11828": "凌乱", "7066": "压制", "15710": "B套", "6130": "发放", "8700": "陆续", "1718": "金", "1720": "一半", "9647": "悬赏", "3497": "岁月", "1749": "方向", "1853": "反弹", "1722": "常", "8620": "涌入", "7357": "中原", "14116": "主队", "3551": "经", "1724": "恐怖", "10262": "排超", "1725": "接下联", "13445": "争执", "2682": "核武器", "1729": "12日", "12020": "梯队", "6944": "战法", "1730": "低调", "15525": "谁主沉浮", "11401": "大臣", "1733": "直升机", "6650": "情报", "8309": "发球", "2623": "厕所", "1734": "较", "15804": "代练", "6935": "弯道", "15225": "排到", "4293": "勒布朗", "6342": "64", "3716": "解锁", "14192": "刷机", "15612": "阻力", "1735": "黑科技", "14476": "水原", "1736": "之前", "1814": "360", "15858": "写意", "7961": "延长", "8520": "佳作", "9432": "索萨", "1740": "竞争", "7855": "网球", "1742": "车辆", "9366": "暴晒", "13733": "撼动", "9695": "欲望", "7368": "位居", "1743": "养殖", "15627": "露天", "1747": "嫁", "8019": "激战", "7306": "者", "4925": "亿万", "12776": "6月底", "13497": "兼备", "1751": "脱贫", "4060": "刺客", "2837": "潜艇", "1752": "赶紧", "10153": "借口", "12370": "填补", "1753": "迎", "15287": "杰作", "1755": "合资", "11106": "现实版", "6045": "官网", "3806": "贫困户", "14654": "补仓", "7964": "张韶涵", "1756": "姐姐", "3308": "齐", "2994": "马克思", "16277": "源于", "6487": "南充", "6808": "有所", "1760": "阶段", "16102": "恍然大悟", "7437": "捡到", "5749": "绽放", "1762": "楼盘", "12858": "僵尸房", "6671": "泰伦", "6590": "11万", "1763": "深度", "16214": "校草", "1982": "组合", "4918": "BBA", "5915": "干掉", "1856": "提", "13942": "谷", "6106": "一亿", "15351": "煤矿", "5050": "蛋糕", "5257": "养成", "1764": "现象", "4227": "非法", "3232": "到期", "5687": "专科", "12749": "魔盒", "1766": "医院", "13195": "羞愧", "1767": "成本", "5728": "担忧", "1986": "300", "3215": "解雇", "1770": "按", "1771": "旧", "16219": "桃源", "6880": "上牌", "1838": "关闭", "4505": "景色", "7448": "救命", "1774": "罕见", "11512": "撤走", "1776": "设备", "8125": "受益者", "1777": "不行", "1784": "高级", "6260": "噩梦", "10340": "笑到", "17285": "梁宏达", "4214": "相遇", "17586": "认筹", "1785": "以前", "2364": "空中", "8045": "背包", "10746": "警钟", "1788": "自由", "12602": "督查", "16256": "洽谈会", "1791": "产生", "1793": "文", "7410": "实验室", "15902": "协议国", "1794": "毕业生", "17221": "数据库", "3920": "专项", "1795": "留学", "11804": "从业", "5278": "摄影师", "1800": "21", "1802": "住宅", "10460": "不败", "2818": "众多", "3415": "一级", "8678": "装置", "1805": "国乒", "3918": "预防", "2653": "巴黎", "3637": "闺蜜", "2011": "袭击", "1806": "宋", "2105": "废除", "3319": "多次", "1807": "实拍", "15781": "中金网", "15745": "offer", "4692": "权", "17641": "迷", "16647": "2017-2018", "1808": "市值", "3006": "昔日", "15205": "抵挡", "10914": "卖萌", "5424": "含金量", "2563": "明天", "17331": "注意力", "1809": "干什么", "3239": "峡谷", "7580": "国有", "1810": "承认", "2352": "难怪", "1811": "美景", "3555": "进步", "5350": "寸", "3280": "驱动", "13223": "蒋梦婕", "8086": "KO", "6995": "落实", "1813": "颗", "7020": "驱逐", "6089": "詹", "15686": "3A", "1816": "失去", "1817": "好用", "15461": "聆听", "1818": "帮助", "4848": "不惜", "2604": "有关", "8464": "邯郸", "14678": "费玉清", "1821": "新型", "9056": "居首", "7760": "埋", "1822": "歼20", "14798": "黑豹", "10118": "8亿", "4550": "十几", "1823": "确认", "5937": "注定", "1824": "资格", "8983": "事迹", "5549": "称赞", "5221": "王丽坤", "4754": "歧视", "1825": "3000", "1972": "录取", "6348": "一边", "1826": "信号", "9449": "舍得", "17058": "对位", "1827": "恢复", "12880": "切入", "1828": "一句话", "9761": "足球队", "3744": "将军", "6183": "泰安", "3701": "忍", "1829": "利用", "7028": "4G", "2642": "队伍", "8115": "化解", "16859": "决裂", "1831": "国人", "14929": "人命", "1835": "vivo", "14956": "借壳", "1988": "一方", "6121": "刘海", "1960": "学历", "1840": "吃饭", "5100": "商标", "4712": "重视", "3676": "青少年", "7488": "色彩", "13505": "冲动", "1841": "团队", "3645": "人家", "13170": "积碳", "1843": "担心", "3147": "KPL", "4509": "海边", "14281": "天花板", "1849": "近期", "11126": "磊", "5731": "易经", "1851": "东风", "1858": "石油", "1862": "街头", "4172": "肌肉", "7758": "四川省", "1864": "龙", "3765": "货车", "5062": "那里", "2100": "UZI", "12957": "定速", "5487": "9.0", "1866": "一旦", "11716": "零食", "1867": "丢", "8332": "外交官", "17383": "物联", "2385": "福建", "1869": "年内", "7251": "异响", "1871": "推进", "9792": "鲁豫", "5436": "惜败", "5136": "第八", "3845": "颜色", "1873": "90后", "4758": "珠江", "14246": "喷漆", "1877": "巴西", "1935": "火爆", "12721": "险些", "3446": "郭德纲", "6209": "赢下", "6552": "火星", "1879": "线", "8044": "羊", "12855": "做工", "15992": "头等舱", "1882": "争议", "8445": "草根", "6501": "大地震", "3580": "湖人", "1886": "嫁给", "2296": "新版", "16366": "端庄", "8212": "潜规则", "1891": "校长", "1894": "十万", "1895": "导航", "3291": "客户", "7428": "所在", "15321": "水产", "6302": "没错", "1898": "极", "14684": "超载", "1904": "高度", "2578": "剧情", "13133": "特权", "2279": "大幅", "1908": "成就", "8155": "尝", "8074": "韵味", "15607": "长远", "1909": "戴", "6470": "or", "5371": "方言", "8170": "我省", "5498": "互联网+", "3597": "三菱", "6413": "淡定", "1910": "路虎", "2295": "新时代", "1911": "选举", "7111": "教科书", "4397": "16万", "4598": "Q1", "1913": "主题", "2004": "合肥", "3986": "欧文", "1914": "外国", "7323": "追星", "1915": "怀孕", "8939": "防护", "13254": "赵云", "4030": "揭开", "6669": "毫米", "1916": "投", "2252": "冲突", "11674": "跑光", "13282": "部委", "15795": "二环", "6403": "模特", "5737": "标杆", "15699": "70亿", "3422": "史诗", "15556": "轮椅", "1919": "现役", "1924": "透露", "3374": "评测", "1925": "产权", "8718": "4A", "1932": "发射", "1934": "法", "1938": "边", "1940": "俗语", "6744": "二十万", "8812": "市面", "1941": "倒计时", "3971": "周冬雨", "11776": "下半身", "2015": "华人", "3911": "特种", "15848": "六千", "10642": "某些", "3758": "破产", "10874": "代言人", "5322": "食物", "1943": "合影", "15475": "芳心", "1950": "斗鱼", "10335": "盗", "9808": "ix35", "15688": "408", "1951": "日军", "2200": "就任", "14278": "天子", "3586": "西瓜", "1955": "达成", "2929": "尽", "15334": "涛静", "1957": "养猪", "4825": "药业", "1958": "周边", "1959": "售", "17465": "第74", "7453": "栽培", "15598": "钉钉", "1966": "亮点", "16974": "埃尔多安", "15935": "吴卓林", "6805": "收视", "17727": "首战告捷", "1974": "散户", "5578": "99", "1977": "岛", "6834": "绝世", "3005": "扔", "1978": "无奈", "2935": "欧盟", "11184": "谚语", "1980": "现金", "11777": "下次", "5250": "中方", "1981": "电话", "14853": "RNG.M", "2102": "在即", "4564": "强劲", "1984": "警察", "4282": "韦神", "1989": "偶像", "2000": "上调", "3195": "备考", "8311": "变现", "2006": "期间", "7970": "感叹号", "2007": "流行", "10036": "老街", "6349": "上千", "2574": "32", "2008": "理由", "16312": "用药", "2009": "禁止", "17573": "被俘", "2012": "骗", "12093": "社群", "3673": "迷人", "7618": "抛售", "6235": "亲密", "2014": "办理", "8923": "车轮", "6891": "佳音", "3036": "拍摄", "6388": "山东省", "2020": "4S店", "5290": "渠道", "2021": "5000", "2461": "县城", "2026": "回答", "2027": "夏季", "14213": "卫生间", "9694": "欧蓝德", "2175": "18年", "9789": "隧道", "3475": "袭", "16324": "白貌", "9004": "出众", "6738": "专", "2033": "高铁", "4708": "账号", "12503": "明智", "2039": "堪称", "7311": "融入", "2041": "忘", "8281": "乐山", "10655": "水库", "2939": "空袭", "6425": "第71", "10658": "河", "2042": "新增", "2046": "轰炸机", "3271": "相关", "15998": "套利", "2049": "发明", "3548": "王思聪", "17618": "跳出", "2050": "夏", "5007": "威海", "2051": "巨大", "7535": "两者", "4014": "剑", "6554": "王室", "2053": "抓", "9788": "限量版", "2054": "攻击", "2055": "板块", "12574": "狂潮", "15040": "响起", "15918": "发话", "6445": "违章", "13044": "数百万", "2414": "做法", "10904": "前提", "13993": "锂电池", "2057": "沈阳", "5084": "偏偏", "2783": "防守", "6794": "战列舰", "2058": "盈利", "12106": "篮球鞋", "2060": "策略", "2061": "背", "16368": "第12", "6101": "阴影", "2063": "要不", "10049": "角逐", "10384": "运-20", "9869": "吃到", "6742": "举报", "5695": "军火", "2677": "向往", "15119": "家轿", "2064": "领", "6835": "综合体", "7701": "飞度", "2066": "出道", "7103": "执政", "4066": "得知", "2070": "队长", "14844": "Mustang", "2071": "陈", "3278": "长春", "10544": "大大", "4340": "保镖", "2852": "商品房", "6271": "完虐", "3990": "爆棚", "4518": "签名", "2073": "东京", "15920": "受辱", "16253": "洗脑", "2074": "关晓彤", "9978": "极端", "2076": "医生", "2078": "大爷", "5073": "8月", "2079": "奔跑", "14273": "大快人心", "5014": "开店", "3211": "自拍", "4051": "app", "2082": "拒", "2940": "等待", "6718": "阚", "5726": "心得", "11557": "泰拳", "15471": "舰身", "17049": "家世", "7581": "堵车", "6600": "东尼", "8227": "紫色", "2084": "热巴", "2088": "这部", "4080": "美味", "6680": "猎人", "8210": "消耗", "2089": "龙头", "13448": "云横", "14032": "高低", "2090": "vs", "2091": "农村人", "2094": "损失", "7192": "两千", "2098": "遗憾", "6491": "召回", "2099": "震撼", "2103": "存", "3796": "歼-20", "12973": "巴中", "2107": "歌手", "10591": "恒", "2571": "长江", "2108": "甜", "3828": "承诺", "2109": "祝福", "6495": "君", "3965": "出局", "2112": "不可", "2243": "情", "14156": "修炼", "2113": "东莞", "2114": "关", "2755": "海报", "2328": "建立", "2115": "升", "2119": "打脸", "3704": "李嘉诚", "2120": "梅西", "2159": "吸引", "2121": "汇总", "12263": "三日", "2126": "蔬菜", "2127": "调控", "11035": "执着", "4507": "榜", "3526": "40万", "2129": "一身", "7607": "张飞", "3456": "出生", "12976": "布冯", "2132": "听到", "3084": "伟做", "6876": "一分钱", "2133": "图片", "3668": "类型", "4442": "苦", "3009": "热", "10567": "小兵", "7205": "信任", "4656": "p", "2134": "季度", "2135": "收益", "9097": "未能", "2136": "玻璃", "10453": "USB", "4698": "禁", "4674": "宝玉", "2922": "似", "9208": "风雨", "12138": "腾冲", "2137": "眼睛", "3761": "网游", "2138": "短", "4582": "破百", "3545": "热搜", "10301": "洪金宝", "6936": "徐州", "6584": "院士", "2139": "综艺", "4865": "埃及", "2140": "股民", "14752": "难事", "8451": "观光", "2143": "亲", "2649": "公益", "3306": "路人", "9129": "田联", "6423": "秀恩爱", "2144": "出门", "3189": "顶", "11848": "北仑", "2147": "听说", "12457": "感染", "2149": "湖北", "2270": "辅助", "2150": "科学", "2895": "保级", "2152": "美好", "2503": "2019", "4654": "31", "4642": "起诉", "2153": "规模", "12966": "小儿子", "5109": "往事", "14746": "陈妍", "2154": "震荡", "7664": "立即", "2155": "3万", "12320": "刹车片", "13650": "屡屡", "2157": "公主", "4735": "家居", "2158": "冲击", "2161": "块钱", "6643": "年收入", "2162": "平", "14893": "下马", "2664": "计算", "12087": "看台", "6730": "75", "2164": "来看", "3653": "天后", "2985": "架头", "2165": "男孩", "10672": "煮", "7796": "数万", "5523": "宽", "2166": "疑似", "2167": "碾压", "3737": "具备", "15719": "JC", "7891": "3点", "2169": "转型", "13438": "之所以", "10003": "狠心", "2171": "采用", "16010": "威马", "2172": "钻石", "2573": "随意", "2174": "飞行", "12446": "心上思故乡", "2389": "28", "3560": "买入", "2176": "2000", "13681": "思纯", "15882": "利弊", "2177": "下载", "2178": "主席", "2729": "战士", "2660": "春", "11333": "养鱼", "11525": "早间", "2180": "刘强东", "9485": "造假", "2181": "印象", "9822": "中国画", "5135": "空气", "2184": "弟弟", "2185": "弦", "2186": "抱", "3406": "财报", "6140": "天涯", "2188": "整容", "2191": "逆袭", "2193": "22", "15115": "宣讲", "4824": "舞蹈", "2197": "卡", "2198": "四驱", "9734": "脚步", "2199": "好吃", "7919": "出嫁", "3225": "中赛", "14404": "揽胜", "7376": "养生", "2201": "张檬", "6378": "境内", "2202": "推", "2203": "无敌", "7939": "大小", "4020": "广汽", "2204": "概念", "2206": "致敬", "5400": "赶快", "2207": "资料", "10985": "小看", "7242": "安以轩", "2209": "错误", "2212": "失误", "13289": "钓", "2214": "封", "6933": "平野", "9095": "有害", "15689": "40分", "2216": "直击", "2217": "翻倍", "3165": "道路", "3471": "甜蜜", "13709": "护理", "2219": "胜算", "7652": "炮弹", "4322": "行程", "3524": "首日", "3089": "化学", "2223": "下台", "12092": "示范区", "7188": "mix2s", "2248": "自驾", "7438": "探界者", "9554": "停售", "16557": "阴阳", "2224": "入", "3032": "平均", "2225": "半决赛", "6030": "同款", "5637": "永不", "2229": "定", "2304": "遇见", "2232": "深夜", "2233": "爆料", "2238": "绿色", "13587": "国民党", "3903": "喊话", "7083": "富有", "3494": "大理", "14217": "叛逃", "2239": "辽宁", "12294": "克莱汤普森", "6115": "军官", "2240": "婚姻", "2241": "干货", "7412": "富裕", "2242": "座驾", "5656": "裸车", "2244": "想象", "2245": "搭配", "7117": "无需", "3177": "引起", "2246": "犯", "13031": "拽", "5403": "避暑", "2467": "工具", "5348": "失业", "14289": "奶", "2247": "米切尔", "5217": "溃败", "3029": "妹妹", "6401": "旅游业", "13390": "NINE", "13890": "羿", "2249": "采访", "13021": "抚州", "2251": "东北", "15100": "孔雀城", "2257": "小镇", "6297": "机智", "2320": "作文", "2261": "指南", "2262": "明日", "6514": "布阵", "15140": "崂山", "3057": "听听", "2263": "更换", "2264": "本科", "2265": "炸", "11560": "涅槃", "11090": "法案", "2266": "登陆", "16239": "水友", "2271": "退群", "2272": "10日", "2273": "不少", "8200": "步兵", "6828": "白敬亭", "11851": "南开", "16767": "乳业", "6368": "割", "2274": "主动", "7291": "用处", "2275": "乱", "14101": "不好", "2277": "会计", "12998": "御用", "3420": "初审", "2280": "大招", "2283": "惊喜", "2286": "贸易", "5776": "严查", "5752": "花样", "2287": "风格", "2374": "发动", "15785": "主营", "8256": "邓莎", "17302": "武直", "4378": "第2", "15313": "段子手", "2289": "出国", "6860": "闺女", "2291": "到来", "2411": "丑", "6819": "滨州", "2293": "家乡", "3843": "贾跃亭", "13719": "据点", "2294": "感谢", "14339": "庆功", "2297": "村民", "2299": "游玩", "3106": "贡献", "3251": "两百", "17304": "歼灭", "14277": "天下第一", "2300": "直言", "3960": "食品", "6986": "禁赛", "8758": "冰丝", "11554": "汪涵", "2301": "红色", "2303": "轮胎", "11337": "冲绳人", "10619": "散养", "15300": "桑切斯", "2305": "鹿岛", "11914": "展演", "13150": "白皙", "5933": "柳岩", "15129": "小长假", "2306": "三国", "3826": "愤怒", "2308": "姚明", "13927": "蜘蛛侠", "16053": "巴雷特", "2310": "接句", "2343": "大陆", "12462": "手球", "14692": "轻取", "13864": "科鲁兹", "2311": "暂停", "2312": "浪漫", "2313": "神", "5355": "希特勒", "2314": "竟是", "2317": "身价", "9689": "林俊杰", "2321": "俄军", "17079": "岔气", "15270": "昨夜", "2324": "号称", "9206": "颤抖", "13992": "链", "2326": "对抗", "12809": "三缸", "3792": "打的", "6053": "房间", "2805": "童年", "14282": "天鹅", "2327": "对话", "9608": "奔腾", "7569": "剑仙", "2633": "果然", "2334": "肉", "6608": "公交", "2335": "萨达姆", "8011": "测评", "2336": "豪门", "6287": "接替", "2338": "33", "13736": "收编", "7154": "脚下", "2396": "帝豪", "7039": "东南", "2339": "东方", "2344": "恐", "2345": "恒生", "12756": "黄昏", "2346": "整个", "17293": "横店", "2349": "满满", "4590": "赔偿", "2350": "自称", "14675": "贵人", "14297": "孙悦", "5315": "迎战", "9388": "泪崩", "2356": "分别", "6676": "激活", "2359": "投入", "2696": "剧", "10688": "甩开", "6055": "找回", "2360": "报", "5788": "关掉", "6111": "二婚", "16959": "国三", "2361": "携", "15044": "四合院", "11047": "掉头", "7290": "瓦基弗", "12539": "气候", "2362": "玩法", "10201": "回本", "14167": "公子", "2365": "而且", "10493": "关卡", "2370": "阅读", "14595": "红尘人", "2373": "上路", "6870": "72", "2377": "小麦", "13619": "娜", "2378": "忙", "11482": "惋惜", "7975": "战车", "2379": "指导", "2521": "吴", "12512": "朝代", "13200": "老旧", "4770": "见识", "2380": "朴槿惠", "2382": "登顶", "2621": "光", "17124": "待命", "2383": "看懂", "6638": "奥数", "2386": "车展", "15840": "入户", "6583": "陕西省", "2387": "首富", "2388": "首批", "2391": "下课", "4332": "风情", "2392": "事项", "2394": "吹", "7275": "株", "9947": "批准", "2395": "夫人", "2398": "意大利", "6083": "罗", "9448": "致谢", "2400": "收费", "2401": "新规", "10426": "饭碗", "11254": "16日", "14410": "擅长", "2404": "楼", "4915": "#", "10357": "花间", "3178": "愁", "6241": "佩莱", "6217": "顾客", "12942": "奇景", "2408": "空调", "7604": "开幕式", "7650": "港口", "2409": "语言", "6218": "马竞", "9325": "小岛", "11785": "中等", "2410": "附近", "4637": "英拉", "16151": "指令", "2412": "保", "2416": "名校", "9836": "儿时", "6869": "5系", "2417": "哈尔滨", "2418": "地产", "13253": "走走", "2672": "以及", "7811": "林黛玉", "14496": "清晨", "6086": "舰载机", "2951": "前途", "2419": "暴涨", "2420": "更加", "4694": "水稻", "3073": "老家", "2421": "立马", "9578": "双杀", "17127": "德旺", "15243": "攀比", "2917": "23", "10772": "追平", "2843": "负", "5316": "运气", "2789": "全民", "11992": "昂贵", "9993": "海量", "12208": "难以置信", "13060": "服务员", "2423": "题", "2424": "50万", "8412": "珠格格", "2425": "CBA", "9041": "嫉妒", "7806": "本国", "2427": "不得", "2429": "千亿", "11497": "指定", "2431": "安倍", "9437": "绑架", "2433": "投资者", "6710": "辨别", "12559": "湿", "2437": "明明", "6883": "云翔", "2439": "走进", "10157": "入股", "12406": "嫌犯", "12727": "面板", "17336": "活到", "2440": "985", "3525": "鸡蛋", "7675": "认错", "2519": "何炅", "7063": "助阵", "6889": "仿佛", "2441": "乒乓球", "5566": "运营商", "2442": "参与", "5123": "日照", "2443": "在线", "14327": "崩坏", "8938": "阅兵式", "10742": "蜜月", "4264": "极致", "10902": "删掉", "13938": "试探", "14967": "入行", "3959": "鞋", "6931": "巨额", "2444": "复出", "5826": "弱势", "2445": "实验", "4167": "杨颖", "2446": "工厂", "2447": "执行", "4835": "键", "2448": "拉", "3632": "详细", "2449": "暴跌", "3163": "路线", "13164": "秀出", "4956": "民国", "11342": "刺刀", "2451": "电", "17466": "第十三", "2452": "砸", "2453": "聚焦", "6533": "接班人", "5825": "张雪迎", "6615": "几百", "2455": "间", "2456": "2019年", "7625": "日出", "2457": "上映", "4045": "要是", "11686": "迷路", "6402": "杀入", "2460": "分手", "6016": "全能", "2462": "取得", "2463": "声音", "3003": "天堂", "6852": "逃杀", "2464": "奇迹", "12388": "大车", "15564": "过来人", "3696": "奥运", "9191": "郑恺", "2465": "实际", "10486": "信贷", "2466": "对决", "2469": "强硬", "2470": "归来", "2471": "打工", "12325": "加仓", "8084": "E", "2530": "雅阁", "9493": "限定", "2641": "进攻", "10008": "画作", "2472": "易", "2473": "汉兰达", "4529": "革命", "2474": "沙特", "13573": "咬死", "2475": "结构", "2640": "赛场", "8289": "便利", "16985": "夏雨", "12326": "加长版", "6785": "屁股", "2577": "儿媳", "2477": "起飞", "17543": "范丞丞", "15047": "回眸", "2479": "车子", "17552": "落叶", "2995": "X21", "2762": "越野", "13863": "种树", "2480": "违法", "8533": "募资", "3885": "3-0", "2481": "陪", "3141": "贴", "8504": "不凡", "15879": "刘邦", "12289": "借力", "2786": "36", "3168": "上升", "2482": "首款", "9080": "指引", "7707": "2025年", "2483": "马拉松", "6389": "微屏玉", "14017": "须知", "7884": "11.4", "2485": "三十", "2486": "不管", "9018": "名山", "5824": "开挂", "2488": "今夏", "2902": "处于", "2489": "何时", "4917": "A", "11207": "那边", "2635": "潜力", "14877": "一年一度", "2491": "堪比", "11543": "查收", "13694": "我校", "8003": "楷书", "14982": "冷血", "2492": "常见", "16816": "保费", "2495": "社交", "4049": "KZ战队", "2499": "身体", "2500": "雨", "2628": "威力", "4152": "夏日", "2501": "风", "12624": "红尘", "2502": "1万", "11240": "高利贷", "4303": "奇瑞", "2504": "丁俊晖", "8627": "牛仔裤", "5760": "足", "2507": "情侣", "10244": "悬疑", "16115": "战乱", "2508": "打仗", "9888": "复牌", "2510": "摧毁", "3759": "科学家", "3103": "直呼", "7589": "安徽省", "2734": "现状", "2516": "路上", "3789": "封杀", "10145": "代步车", "7256": "抑郁症", "2518": "2万", "5018": "忽视", "10431": "黑幕", "2523": "心中", "5781": "何处", "3767": "重生", "13939": "诗书", "2524": "打败", "9963": "旺", "12820": "中情局", "4780": "WEY", "2526": "热议", "3533": "前妻", "10016": "省下", "15828": "偶然", "11279": "w", "14194": "前一天", "3133": "根", "2527": "范", "5787": "全域", "8775": "古诗", "2528": "葬礼", "2529": "资讯", "2531": "马来西亚", "2535": "下架", "11351": "卓越", "16559": "阶段性", "7519": "23岁", "6461": "2024年", "10646": "橙黄", "2536": "不止", "2537": "且", "16075": "引资", "2539": "刀", "13264": "轻型", "6702": "解盘", "12900": "受访", "2540": "命运", "10274": "映月", "5988": "150", "11591": "盟军", "2541": "因素", "2956": "大豆", "6866": "鲜为人知", "17531": "芈月", "2543": "开心", "8898": "联邦", "9494": "隐退", "12860": "兑付", "2545": "时光", "13406": "一千万", "5738": "步行者", "2547": "盖", "12873": "冤枉", "2548": "美媒", "2550": "逼", "2551": "降低", "12785": "Drive.ai", "14366": "扎实", "16251": "泡泡", "2552": "5.9", "9568": "前来", "2553": "儿童", "2555": "医疗", "2558": "屏幕", "8341": "宁", "3624": "线路", "4160": "当兵", "2559": "快讯", "4364": "手上", "2579": "口", "17524": "舔屏", "5528": "总经理", "15534": "贴身", "2560": "急", "6479": "入伍", "11059": "敲定", "2561": "打算", "10199": "唱功", "4085": "运动会", "2565": "礼物", "9313": "大集", "14319": "小二", "2566": "笑笑", "15425": "算盘", "2634": "气", "7212": "前期", "6219": "高能", "2568": "记忆", "3369": "民办", "11001": "廷", "13585": "回馈", "2569": "论坛", "2582": "怪", "17294": "横穿", "7490": "芯", "2583": "敌", "2584": "斗", "13700": "手柄", "6647": "很少", "2586": "注册", "12444": "征地", "13954": "践行", "16126": "打王者", "2587": "满足", "2588": "王子", "12584": "珠三角", "11867": "名言", "16017": "孟加拉", "3296": "比例", "13903": "腹", "7798": "旅行车", "2589": "解释", "2591": "赢得", "2592": "LPL", "5378": "爽", "3552": "花园", "11232": "风景线", "5377": "深情", "2596": "助", "15735": "TPU", "2598": "家族", "16042": "尽情", "2599": "局势", "3391": "总冠军", "11432": "害死", "6622": "句句", "3583": "狙击手", "12956": "定投", "8865": "牛肉", "9562": "出于", "13225": "蛋鸡", "2601": "形象", "4267": "牵手", "2605": "朝", "8805": "小号", "10171": "剧组", "8188": "时髦", "8901": "航拍", "7283": "点球", "14602": "绘本", "2606": "清理", "2608": "胎", "2610": "董明珠", "2611": "试驾", "7447": "故里", "9905": "家暴", "2612": "详解", "14924": "云联惠", "2924": "内马尔", "17021": "好运", "7653": "物件", "12152": "表扬", "7463": "泡", "2613": "身亡", "3816": "伤亡", "5133": "祖国", "15736": "The", "4253": "宝贝", "2615": "近照", "3001": "呗", "2617": "针对", "12180": "这两年", "15594": "金山", "2618": "人数", "9751": "谋", "10861": "主管", "10670": "炒币", "16632": "106", "2619": "休闲", "7171": "酝酿", "2620": "先锋", "5145": "西蒙斯", "2624": "发行", "16913": "反制", "4075": "新生", "8349": "巨变", "2625": "大选", "7209": "全身而退", "5489": "PVE", "2626": "女王", "3757": "看出", "2627": "姑娘", "6958": "昊然", "2629": "小孩", "2630": "思域", "2631": "总结", "2638": "考上", "16654": "3000多万", "5943": "炒房客", "4727": "内地", "2639": "良心", "13868": "空白", "3417": "中央", "16714": "ms", "5697": "出任", "7300": "窍门", "2644": "三分", "10650": "死于", "2646": "以内", "2647": "健身", "2648": "傻", "2650": "华夏", "4571": "樊", "16643": "167", "4029": "接下来", "2652": "好友", "12563": "潜水", "4392": "预言", "2654": "年龄", "2655": "建国", "15206": "押题", "17094": "常人", "4941": "外交", "7565": "创客", "2656": "心酸", "6987": "稀罕", "2658": "昆明", "2659": "易烊", "4555": "大道", "2787": "不见", "3418": "人士", "2662": "表演", "11719": "非诚勿扰", "6748": "体会", "5093": "分类", "2663": "西班牙", "2667": "跑车", "3913": "自信", "7436": "指挥官", "5652": "粮", "2668": "遍", "2670": "隐形", "13457": "会展", "2671": "12万", "2673": "刚需", "2674": "南", "9676": "春水", "10825": "2500", "2675": "原子弹", "9007": "力压", "13442": "习近平", "12220": "首艘", "8094": "乾隆", "2678": "地铁", "2680": "天猫", "6732": "B", "2909": "有用", "14139": "任选", "8133": "喷子", "5445": "校外", "2681": "明年", "7180": "1%", "5795": "加分", "2683": "泡沫", "3567": "地块", "2684": "灭霸", "2999": "厂商", "9910": "巅", "14050": "2%", "2685": "石家庄", "14378": "抗震", "2687": "聪明", "2689": "论", "5923": "持", "11244": "鸡肋", "2693": "MPV", "2694": "下滑", "12459": "战国", "3978": "恋爱", "13362": "21万", "4704": "补", "2695": "中文", "2697": "卡扎菲", "11862": "可人", "5767": "首位", "4288": "入门", "10489": "先行", "2698": "它们", "4683": "当场", "3685": "产量", "12140": "自卫", "12859": "充足", "2702": "旗舰", "12205": "限额", "2703": "机械", "7100": "战友", "15796": "互金", "2705": "沙漠", "13778": "梅开二度", "2710": "豪宅", "3994": "经过", "2711": "车载", "7949": "定局", "2712": "长期", "2716": "仍然", "2719": "你家", "15374": "生于", "2720": "兵", "5239": "高薪", "2721": "军舰", "2722": "则", "3664": "法院", "2723": "劳斯莱斯", "11907": "害处", "16331": "相杀", "2724": "复习", "2727": "德", "2730": "排行", "16822": "停水", "6915": "唐山", "17745": "黄山市", "2731": "数量", "13546": "双人", "7162": "视觉", "7920": "初三", "2732": "景甜", "4002": "高价", "9066": "当家", "2735": "男团", "8032": "畅销", "8348": "巅峰期", "2863": "管", "9595": "图虫", "2736": "画面", "16178": "新生代", "3377": "途观", "3137": "看点", "7643": "沦落", "2739": "花钱", "2740": "这家", "13963": "进货", "2742": "云", "15872": "刁难", "3516": "许昕", "2743": "偷偷", "9215": "麟子", "14239": "唐伯虎", "2744": "划算", "10131": "一步步", "7746": "受不了", "2745": "县", "3715": "见证", "9338": "式", "2748": "大神", "2894": "余额", "6571": "花香", "11378": "啃", "11847": "化妆品", "2750": "抛弃", "2910": "眼神", "8347": "山西省", "2752": "档次", "14432": "智", "15484": "莫名其妙", "11970": "换人", "2753": "欧", "3389": "张继科", "6443": "赠送", "3486": "佟丽娅", "6253": "加油站", "2754": "汽油", "4220": "范围", "12742": "马甲线", "2757": "网易", "2758": "群", "6985": "研讨会", "13476": "储能", "10850": "上班族", "2760": "血", "16462": "讲课", "14966": "入眠松", "4296": "嘴", "2761": "谢霆锋", "6957": "新股", "2763": "身", "10951": "四线", "2766": "一汽", "2767": "今", "2768": "体系", "15331": "海淀", "8432": "缺月", "14790": "高雅", "2769": "好多", "9901": "完整版", "2771": "心态", "2773": "捡", "3455": "全家", "9364": "晚年", "2774": "样", "9461": "观赏", "2775": "生猪", "2777": "睡", "2778": "秒杀", "2780": "许多", "7861": "该国", "16596": "飞豹", "2785": "35", "2788": "俩", "7533": "专用", "2791": "孙", "2793": "平米", "14873": "一一", "4650": "雪", "13766": "杠杆", "3281": "4月份", "2795": "张家界", "13192": "网线", "2797": "恒丰", "16865": "分家", "6359": "传来", "2806": "老兵", "4817": "电梯", "2807": "老子", "9741": "董卿", "3851": "南昌", "7947": "姿态", "2808": "舰队", "3076": "调研", "8134": "困扰", "3000": "双方", "9218": "128", "2811": "转", "3172": "刷", "2812": "运行", "16045": "山海经", "2814": "7万", "13559": "合金", "4290": "养鸡", "2815": "90", "14245": "喜悦", "2817": "五一", "12603": "矣", "4091": "集中", "2821": "几十", "3923": "云龙", "2823": "创始人", "7010": "金靴", "5163": "FW", "5181": "南北", "2824": "区", "2825": "名人", "2826": "哦", "8214": "物资", "7552": "做错", "3048": "虽然", "2831": "崩溃", "11224": "障碍", "3669": "舒服", "2832": "往", "7979": "打卡", "2834": "暗杀", "2835": "标志", "5098": "卖房", "2836": "沙滩", "3088": "删除", "2838": "男神", "8404": "溜", "9114": "港姐", "14958": "值勤", "5756": "誓言", "2841": "纽约", "2844": "迈腾", "2846": "邓", "9322": "实战化", "10966": "大院", "15637": "领养", "3402": "签证", "9068": "影后", "7663": "穿搭", "2847": "钥匙", "3255": "咋", "12103": "稻草", "11188": "赌场", "2848": "刘诗雯", "2849": "利息", "12895": "原形", "2851": "单身", "7600": "帷幕", "2853": "地板", "2854": "处罚", "2855": "大片", "15062": "填权", "2857": "将来", "2858": "店铺", "5539": "涡轮", "2861": "环保", "7770": "宣战", "2864": "罚款", "4022": "张艺兴", "3513": "秦", "2865": "阳光", "12280": "付钱", "4755": "治", "2868": "专利", "2870": "刘亦菲", "17642": "追上", "2871": "初夏", "7740": "出版", "9988": "水里", "6076": "省份", "2872": "到处", "9389": "流浪狗", "15976": "大厅", "2874": "女主", "7859": "讲解", "14059": "45万", "2876": "峰会", "8541": "反政府", "2877": "建房", "2879": "江南", "11577": "王昭君", "4441": "绘画", "2883": "经营", "7592": "宝鸡", "2885": "表态", "13049": "新赏·新丰尚", "15628": "露肩", "15813": "低吸", "2886": "身高", "16170": "攀", "2890": "鹿角", "6050": "恶心", "8403": "消除", "2891": "黑色", "3607": "勇士队", "2892": "不知", "6071": "狂欢", "8036": "秋季", "2896": "修改", "4503": "断", "2897": "停车", "2898": "农产品", "13454": "仅售", "14848": "PC版", "8592": "收好", "13325": "飙车", "2900": "告别", "8547": "和平奖", "7070": "吃鸡", "12364": "地道", "5345": "声称", "2901": "声", "8502": "三观", "5456": "空", "2903": "好听", "2904": "开盘", "2905": "控股", "3910": "爸妈", "2906": "新秀", "5047": "网友们", "2911": "聊天", "17151": "惨案", "5203": "打进", "10122": "BMW", "2912": "请问", "2913": "踢", "3623": "精品", "2914": "问答", "2915": "集", "9347": "手把手", "2920": "亲自", "2921": "伤", "5879": "下雨", "2925": "刹车", "8623": "火锅", "13208": "自律", "2927": "夺得", "7941": "天津市", "2933": "晓彤", "8368": "排气", "5099": "可不可以", "3610": "安理会", "2934": "服", "9459": "西海岸", "12509": "有助于", "2937": "独特", "2942": "表情", "9716": "电网", "7022": "10000", "15703": "821", "6731": "7天", "2943": "见到", "8933": "采", "2944": "财经", "5243": "7000", "2947": "GDP", "5634": "梦瑶", "12640": "耗费", "2949": "任", "2950": "全程", "2952": "卫星", "9641": "忍受", "5780": "优点", "2953": "印", "11581": "生源", "5864": "视角", "2955": "回顾", "14811": "2.5亿", "2957": "娱乐", "2959": "对头", "2965": "敌人", "8866": "牧马人", "13351": "104", "2968": "第十", "14293": "威尼斯", "2969": "累", "3487": "佳", "11338": "出狱", "16156": "捉妖", "5139": "线下", "2970": "节奏", "11698": "野怪", "2971": "请来", "8962": "180508", "9923": "异动", "2974": "㎡", "8443": "舒淇", "5670": "闪电狼", "2977": "史上", "10984": "富士山", "3470": "爱上", "6522": "当心", "13610": "央企", "2978": "广场", "13524": "动荡", "2979": "建造", "4076": "海", "8978": "不怎么", "2981": "我家", "8394": "气囊", "2997": "买卖", "9829": "五星级", "5129": "瑞士", "2982": "批评", "6776": "国王", "2984": "最牛", "5554": "考察", "3989": "热血", "14105": "不要脸", "2987": "考场", "9548": "仓库", "2990": "赛后", "2992": "难度", "11101": "潸然泪下", "11392": "塞维利亚", "12620": "简讯", "2993": "飞车", "3002": "和平", "3007": "森林", "11087": "江北", "3024": "发型", "3012": "留学生", "4837": "韦德", "4069": "恩爱", "15269": "易懂", "3015": "MSI季", "3017": "伊涅斯塔", "15380": "畏惧", "4663": "休息", "12265": "上海市", "3020": "修", "8010": "洗澡", "10686": "理科生", "3021": "冷", "6093": "资助", "3272": "短线", "13797": "汇聚", "3023": "发力", "3026": "回合", "12636": "耀眼", "3027": "城里", "3028": "她们", "3031": "定位", "11052": "摇钱树", "8346": "就此", "3033": "平安", "3622": "突发", "13979": "遗弃", "15372": "甘拜下风", "3266": "歌曲", "3034": "性感", "4118": "媲美", "11819": "催泪", "3038": "摄影", "3039": "新品", "3040": "樱花", "3045": "算是", "10795": "隐情", "12987": "开卖", "9798": "20分", "3046": "罗永浩", "8825": "撑起", "3047": "自我", "11118": "直播间", "3050": "车祸", "5705": "和谐", "15866": "减轻", "17648": "逆水寒", "3518": "迪士尼", "6520": "开打", "3052": "FNC", "3056": "可能性", "16790": "亲承", "3058": "喷", "15494": "蓝图", "5706": "哲学", "3060": "奖金", "7309": "荷塘月色", "3061": "奶奶", "12405": "姜昆", "8607": "桑葚", "5127": "流泪", "3063": "开发者", "8959": "10岁", "3064": "张翰", "3066": "战平", "12242": "900", "13885": "维度", "10865": "二中", "6593": "60%", "3067": "机遇", "8822": "招聘会", "5802": "后市", "3075": "设计师", "3078": "银行卡", "5477": "雪佛兰", "16451": "西布朗", "5292": "炮", "13946": "贫困村", "3080": "iOS", "3081": "一览", "13347": "1.5万", "9370": "权益", "3085": "传祺", "7728": "九寨沟", "5505": "兵器", "3086": "何去何从", "3087": "兵乒球", "5938": "浅", "3090": "南海", "15181": "惊天地", "3091": "原", "9800": "2500万", "5644": "演出", "5209": "村里", "9713": "猫腻", "5466": "赏析", "3094": "成熟", "8299": "初一", "3095": "战斗力", "4919": "I/O", "14218": "口头禅", "3097": "本人", "11074": "杀熟", "3098": "民宿", "3099": "火车", "7813": "残酷", "11967": "挪威", "3102": "百年", "3104": "美金", "7870": "逃离", "4541": "乘客", "14317": "对牛弹琴", "3105": "翻", "3107": "赞", "3786": "天价", "3108": "跟着", "7752": "周三", "10379": "赔钱", "4839": "黑龙江", "10632": "月圆月", "3110": "难以", "6984": "短发", "12674": "触发", "12490": "攀岩", "16803": "伤势", "3113": "1000万", "12594": "盖茨", "7689": "适应", "5992": "GPS", "5888": "典型", "3114": "不愧", "8336": "太行", "5493": "一触即发", "3115": "停止", "7384": "厘米", "3117": "初", "14407": "搬家", "3118": "利比亚", "13801": "洋", "3120": "反而", "11786": "中药", "3122": "大仙", "3675": "部署", "4347": "减肥", "14323": "小规模", "15820": "依托", "3123": "天使", "7610": "情感", "3124": "奥尼尔", "12641": "耳环", "5054": "走出", "3125": "奥运会", "4710": "返场", "11078": "格列兹曼", "3129": "报道", "3132": "本周", "3135": "流程", "3136": "照顾", "8942": "陪嫁", "5484": "49", "3138": "缅甸", "17403": "畅谈", "3140": "语音", "6362": "佳绩", "14485": "波涛汹涌", "7067": "厨师", "5305": "舰艇", "3143": "顺利", "4471": "仙境", "12963": "富商", "3146": "5.12", "3148": "会师", "15552": "车距", "3738": "前夫", "3152": "川", "13220": "荷花", "3155": "打到", "10525": "告", "15178": "悠闲", "3156": "指标", "11159": "育", "3157": "独角兽", "12404": "姜", "3613": "替", "3158": "白菜", "7019": "首尔", "3159": "福", "3160": "缺", "7778": "应急", "3161": "自带", "3162": "菲律宾", "3164": "进展", "10376": "负担", "3692": "博览会", "4523": "诗句", "15515": "见闻", "4826": "莫", "3166": "闹", "3170": "今晚", "3171": "以来", "4953": "权力", "14778": "风暴舞", "3174": "学子", "3176": "庄家", "11262": "9·11", "6422": "祝", "12158": "视为", "4164": "搭档", "3180": "拥抱", "12673": "规格", "3181": "推翻", "9591": "哽咽", "3184": "武磊", "3185": "洛阳", "5618": "家中", "15326": "法人", "3188": "释放", "9772": "遵守", "3190": "10亿", "6573": "见面", "3191": "48", "3833": "此前", "3192": "从此", "3194": "后期", "15107": "宋词", "3196": "姿势", "3198": "展现", "3199": "山水", "3200": "师范", "6386": "小子", "3992": "相", "7130": "清晰", "3204": "提示", "6109": "乡", "3207": "登", "7725": "严格", "3934": "巡航", "3947": "海岛", "3210": "联通", "13631": "家产", "3213": "草原", "10343": "箭", "9533": "mm", "3214": "街舞", "4478": "分配", "3216": "证监会", "7043": "习俗", "12046": "湖州", "5717": "家属", "8425": "穷游", "16833": "光子", "3361": "太阳", "3219": "送给", "13405": "一加", "3223": "黑马", "6387": "小小", "3452": "人人", "7629": "时有", "3224": "13年", "13046": "断绝", "3226": "主演", "14033": "高居", "3230": "共有", "3231": "具体", "7496": "蹲", "6651": "感悟", "3233": "千玺", "4315": "淡淡", "3237": "小将", "12435": "庆典", "5357": "幽默", "3238": "展", "12246": "CD", "6399": "敲", "7036": "上阵", "6463": "46", "7791": "接到", "3240": "当地", "3242": "战舰", "3244": "搭载", "14462": "樱桃节", "17062": "射", "5224": "相同", "3247": "洗", "8916": "诗意", "5045": "第九", "3835": "油画", "17460": "竞速", "3249": "重返", "3250": "4000", "3882": "马龙", "16387": "绕道", "16173": "敏镐", "3254": "可是", "13012": "戴上", "4357": "宋茜", "3256": "土", "13349": "10.5", "8109": "出土", "16499": "转租", "3257": "妹子", "3258": "战绩", "3260": "抽", "3261": "拆迁", "3263": "李晨", "8755": "关联", "3264": "标配", "3265": "棒", "3512": "秘诀", "3700": "带上", "4079": "笔记本", "5294": "瞄准", "3268": "特殊", "6621": "反超", "12365": "场合", "3270": "盘", "5490": "Q", "7051": "做饭", "17462": "笑掉", "15039": "哈弗H9", "3273": "缺席", "3275": "虚拟", "4622": "思路", "16606": "高涨", "3276": "试点", "3282": "下场", "10541": "坠台", "17453": "空余", "14134": "从中", "6090": "诚意", "13386": "MIX2", "5193": "图集", "3283": "世俗", "3284": "世纪", "14867": "logo", "4024": "恨", "3290": "孙子", "3294": "显", "3295": "查", "16562": "阿联酋", "11301": "二次元", "15412": "穿梭", "7774": "州", "14397": "探底", "3297": "特训", "10181": "原版", "3298": "王牌", "9431": "箱子", "3300": "空投", "4536": "X3", "3302": "老话", "17406": "白云山", "3303": "警惕", "14539": "生铁", "3307": "麦凯恩", "3309": "211", "4460": "00后", "6157": "怒斥", "10072": "邓肯", "3310": "45", "16836": "克拉克森", "16750": "中天", "3311": "7月", "10416": "韩宇", "12153": "被害", "3314": "中国队", "3316": "倒闭", "3317": "古城", "3318": "商务", "3320": "多难", "3322": "娘家", "3323": "婚后", "3466": "既", "15061": "塞尔塔", "12338": "友人", "3324": "宝沃", "4237": "丞丞", "14427": "易主", "3325": "带领", "3327": "志愿", "3426": "天赋", "9525": "7系", "16940": "吴佩慈", "3328": "意味着", "10342": "算法", "4792": "同行", "3331": "拍卖", "7415": "屠夫", "3333": "据说", "3337": "教授", "3338": "整体", "3339": "混", "13538": "协商", "3341": "烟台", "3344": "皇帝", "9333": "广元", "3345": "相当于", "12164": "质感", "12652": "英国人", "3347": "课程", "3349": "青蛙", "3350": "预售", "15468": "自贸区", "9408": "珠宝", "4480": "商机", "3351": ".", "11468": "归国", "7602": "平局", "3352": "Google", "5299": "系列赛", "10215": "天意", "15914": "反手", "3358": "商品", "7608": "当上", "3359": "复活", "8438": "耐克", "3362": "延续", "16951": "嘴里", "4539": "专利权", "11626": "缴存", "12291": "倾家荡产", "3366": "挣", "3368": "晚上", "3370": "泰森", "3371": "省钱", "3565": "含", "7511": "马拉松赛", "16290": "牧原", "3372": "眼", "14525": "独大", "5589": "买家", "3379": "一流", "3381": "中甲", "3889": "专题", "12528": "横盘", "17129": "心里话", "3382": "低迷", "12268": "下雨天", "3612": "拳王", "8157": "工地", "5095": "利器", "3384": "呼吁", "3387": "大气", "15767": "下周二", "3388": "失望", "3390": "当时", "15244": "攻占", "3395": "春天", "7998": "李彦宏", "3396": "本场", "11540": "松", "13991": "银联", "4226": "雷", "13348": "1/3", "3399": "没钱", "3400": "省油", "3403": "给出", "12475": "指点", "17206": "搭戏", "4869": "底盘", "3404": "致命", "5143": "花费", "3405": "行车", "7165": "试验", "3608": "否决权", "3409": "长裙", "3412": "阿富汗", "3492": "千金", "9267": "公租房", "11875": "地表", "3413": "难题", "3414": "骗局", "8234": "胖子", "3423": "合资车", "7267": "时装", "5723": "张召忠", "3425": "大部分", "3427": "建成", "7676": "话说", "6846": "表", "3736": "入围", "4730": "原谅", "8380": "明锐", "3431": "新政", "3434": "欠", "3996": "蓝洞", "10373": "诱人", "6780": "奖杯", "8532": "办公室", "11307": "伏击", "5989": "3分", "3437": "清楚", "8100": "作死", "14305": "安逸", "3438": "漫威", "3439": "独家", "12907": "名副其实", "7721": "上空", "10077": "钢琴", "3964": "一面", "3441": "老外", "8948": "预示", "3443": "胡歌", "7955": "尚未", "5840": "有意思", "5169": "不料", "3445": "行走", "16296": "独白", "3453": "今月", "8177": "控", "3454": "入学", "7326": "阜阳", "13656": "巩固", "3457": "加快", "10890": "公证", "3460": "失踪", "3461": "女团", "15753": "一色", "3584": "皆", "10076": "金钱", "3728": "颠覆", "3465": "改版", "3472": "白色", "12901": "台岛", "3520": "醉吟", "3476": "贾乃亮", "14197": "副总经理", "8816": "手法", "3478": "防止", "11664": "西飞", "3925": "僵尸", "5771": "5%", "3479": "隐私", "14290": "好几万", "15838": "入坑", "3482": "2亿", "3485": "亚马逊", "3559": "下半年", "3491": "北约", "14034": "高等", "3495": "射击", "7867": "运送", "3496": "小白", "5900": "合作社", "5267": "孤立", "17135": "急忙", "9925": "张灵甫", "3500": "恋情", "15620": "降回", "8120": "单价", "3501": "悟空", "12921": "坏人", "14166": "公会", "3502": "战神", "10883": "健称", "3503": "旗下", "3535": "咖啡", "3505": "机票", "4093": "食堂", "14628": "航程", "6141": "好像", "3506": "柳", "8175": "抨击", "3508": "法师", "3515": "西甲", "7487": "耽误", "3908": "核潜艇", "4180": "风波", "9804": "IT", "7563": "分子", "3517": "车牌", "9791": "驾驭", "13627": "实则", "3522": "钧甯", "3529": "付", "8269": "130", "4302": "天龙", "3539": "小鲜肉", "13986": "钢材", "11770": "一点点", "3540": "手里", "3541": "打响", "3543": "有趣", "3544": "流畅", "11068": "景德镇", "4567": "捐款", "3546": "爆款", "10126": "PS4", "9469": "试题", "3553": "跳伞", "4580": "睡觉", "3554": "转会", "3556": "陈赫", "3557": "领导", "3561": "佛山", "8922": "跻身", "7383": "华锋", "3570": "市区", "15307": "歌坛", "17564": "融化", "3563": "助推", "5851": "确保", "12198": "问号", "4344": "八大", "3564": "华裔", "10337": "秋", "4074": "文博会", "3568": "大哥", "15444": "续酒", "3571": "帝国", "3572": "当前", "16065": "废柴", "3574": "微雨", "4426": "早报", "3575": "心情", "3578": "有着", "12317": "刚果", "3579": "消费者", "3582": "犯规", "16181": "旁听", "3585": "美团", "10321": "热烈", "14886": "三国志", "14488": "泰党", "3587": "边境", "7851": "稻城", "3591": "面世", "3641": "100%", "14493": "浙江省", "17647": "逆战", "3658": "报复", "3592": "顶尖", "3594": "饭", "10599": "扰乱", "6325": "误区", "6006": "乔", "4629": "更胜一筹", "3598": "上班", "12333": "卢克", "6531": "拳头", "3599": "不得不", "14299": "学区", "3601": "之下", "3602": "亮剑", "3603": "保障", "5234": "顺丰", "3871": "档", "5625": "意识", "16030": "审", "12943": "奇缘", "3606": "削弱", "11610": "空降兵", "5774": "92号", "3611": "小型", "12209": "难关", "4061": "功夫", "13144": "电磁", "3616": "汉字", "3617": "澳", "15299": "桃李", "15447": "缩短", "5263": "城里人", "16966": "地带", "6343": "8000", "3618": "牺牲", "4992": "列", "3619": "相差", "3625": "耶路撒冷", "15402": "社会主义", "7113": "无眠", "5178": "军演", "3626": "节", "11414": "存量", "3628": "荣获", "6694": "职场", "3629": "萌", "3630": "董事长", "7802": "春秋", "6904": "南沙", "10829": "71.5亿", "3636": "锦标赛", "17342": "浩克", "10458": "一瞬间", "3638": "随便", "3917": "醉", "10041": "花蕾", "6817": "清凉", "11737": "1000多", "3640": "高层", "7420": "征兵", "3642": "上浮", "10297": "江中鱼", "10317": "火币", "3648": "千古", "3644": "互动", "3646": "众人", "7709": "6亿", "10660": "油箱", "3647": "便", "4842": "2.0T", "3649": "卡纳瓦罗", "5845": "游资", "17585": "认清", "3650": "只用", "3652": "嘛", "3654": "就职", "15747": "to", "6371": "十五", "8680": "诱惑", "3656": "怀疑", "14454": "果蔬", "17317": "江宁", "3657": "惨败", "7833": "爱国", "3659": "挽回", "6187": "灭", "3660": "摇号", "3661": "文物", "11305": "令状", "4007": "一致", "4685": "怪物", "3663": "杀手", "3969": "别的", "8856": "海盗", "3665": "潘", "3666": "火线", "7045": "人头", "3667": "称号", "11917": "巩", "3671": "败", "3674": "通", "3677": "风采", "11837": "初期", "3823": "吊", "17423": "矩阵", "3678": "20%", "16881": "加速器", "3679": "80后", "6031": "名嘴", "5499": "五万", "4983": "万元", "3680": "855", "3682": "上万", "9445": "联军", "7647": "深思", "3686": "人民日报", "5985": "黄景瑜", "8491": "87", "3687": "优化", "7646": "深处", "5230": "评选", "3688": "信用", "3930": "国土", "17267": "村长", "3689": "免", "5463": "蓝色", "3690": "内蒙古", "15631": "青涩", "6345": "ESPN", "3695": "地理", "3702": "春节", "3705": "毫无", "3706": "狙击", "3707": "王宝强", "13527": "势必", "3709": "皇后", "3710": "眼中", "3714": "要点", "3717": "记住", "8969": "ESP", "9222": "300多", "5809": "外地人", "3718": "购物", "4070": "感人", "3719": "资格证", "12556": "润地", "12006": "期权", "3721": "进化", "14974": "关公", "3723": "远离", "8590": "推开", "6032": "含义", "8857": "润", "16234": "比特", "3726": "陷入", "17023": "妖", "16918": "取舍", "3727": "面前", "6284": "指教", "5303": "罗马", "6734": "MACD", "3733": "两万", "3734": "五四", "12959": "实务", "3739": "卡佩拉", "4530": "频繁", "3740": "同一", "11282": "一见钟情", "3741": "吴亦凡", "11092": "洞", "3743": "国学", "6856": "野生", "3747": "形成", "3937": "开播", "3748": "扎", "3753": "欧元", "9853": "劲爆", "3755": "猜", "9755": "走人", "6162": "抢眼", "17351": "淡化", "14750": "随身", "4052": "’", "3756": "病", "3760": "符合", "3768": "钱包", "3771": "高分", "3773": "38", "7276": "概念车", "9914": "席位", "3935": "市民", "3776": "不易", "12197": "问候", "7305": "索泰杯", "3777": "不服", "11327": "公测", "3778": "专访", "3781": "初恋", "8182": "教会", "5465": "谢谢", "9085": "散", "3782": "双胞胎", "9732": "缺口", "3787": "奋斗", "3790": "平衡", "12752": "鲍威尔", "7333": "餐", "3793": "攻坚", "13654": "川西", "15547": "跑路", "5928": "敌方", "15695": "6.8", "3795": "李易峰", "13003": "恋人", "3800": "碧桂园", "9781": "闲钱", "4547": "内幕", "3802": "给力", "4447": "货", "15195": "技师", "15874": "分得", "3803": "自行车", "3805": "认真", "3807": "邀", "15341": "滑冰", "5574": "限量", "3808": "阻止", "3810": "额度", "16134": "把脉", "3811": "魔咒", "3812": "200万", "13364": "400%", "8119": "半床", "13858": "祭出", "3840": "花生", "3814": "不只", "5914": "属性", "3817": "体重", "3818": "写作", "3819": "冲", "7749": "名著", "16182": "旅拍", "3820": "决议", "3902": "商店", "15610": "阳", "8832": "数控", "4748": "携程", "3821": "分期", "7518": "200亿", "13782": "横幅", "3822": "切尔西", "3825": "开赛", "6783": "小宝", "3829": "担任", "10730": "节能", "6894": "全年", "5401": "辛苦", "15330": "浮现", "6398": "放话", "3830": "揽", "4572": "水浒传", "9316": "太坊", "3831": "格林", "3832": "榜单", "3837": "白宫", "11902": "嫩", "10879": "侦察", "3838": "精英", "13224": "蒸笼", "3852": "卢", "4086": "还款", "15415": "竞猜", "7315": "走路", "3854": "变革", "15847": "公顷", "3855": "各个", "7252": "影帝", "5573": "降落", "17005": "天宫", "6490": "原型", "3856": "后卫", "3857": "嘲讽", "4989": "价位", "13288": "鉴别", "3858": "奢华", "3862": "岗位", "7001": "赏", "13658": "帝王", "15191": "截", "3863": "思考", "3864": "支撑", "6578": "避开", "3865": "放心", "3866": "效率", "14503": "游艇", "4483": "奖励", "3867": "昨天", "3868": "朱", "13893": "老手", "11399": "夜景", "13138": "玩弄", "17370": "炖", "6506": "好几", "3870": "查询", "3872": "模拟", "3873": "段位", "4018": "学科", "5394": "肯", "3874": "涨幅", "10315": "湛江", "3875": "瑞典", "17075": "山洞", "3878": "讨厌", "6688": "绕", "6509": "安心", "9724": "秀美", "5797": "北美", "5982": "风风雨雨", "3881": "青睐", "3886": "一手", "3887": "三线", "12061": "特战", "3892": "任正非", "16372": "粗暴", "5786": "停牌", "3893": "企业家", "3894": "儿女", "3895": "充满", "11869": "吵架", "3896": "再见", "3898": "协定", "3899": "南方", "3900": "即", "10071": "选拔", "4019": "对面", "3901": "合照", "5694": "停产", "3906": "报废", "5951": "眼镜", "3907": "暴力", "3912": "百亿", "3915": "超模", "15764": "上届", "3921": "严禁", "9752": "贸易战", "7782": "惊", "7815": "每人", "11215": "错觉", "3924": "从不", "16810": "供销", "6682": "电机", "13186": "纯属", "3928": "医药", "6269": "天籁", "14528": "王晶", "3929": "半夜", "11655": "萌翻", "14478": "沈腾", "3931": "委内瑞拉", "3932": "学位", "6508": "守护", "3938": "引爆", "6568": "考古", "4040": "点评", "3939": "形态", "9964": "明朝", "15032": "后置", "16982": "处境", "3940": "得分", "7316": "起火", "9065": "当之无愧", "3943": "晒出", "3945": "来到", "4881": "无情", "9990": "沿海", "3946": "梦泪", "15310": "步行", "3952": "虽", "6026": "即可", "3953": "蛇", "11505": "接口", "13279": "邱", "11899": "始末", "3954": "计算机", "12947": "妥协", "3955": "认可", "3957": "足协", "3958": "逐渐", "13134": "狂跌", "12079": "疲软", "3961": "首选", "16124": "打分", "3962": "高三", "16286": "爆品", "3963": "Steam", "4001": "青海", "3968": "初级", "3972": "备案", "3974": "威少", "3975": "小品", "17621": "转出", "4396": "高尔夫", "3976": "强制", "3980": "打车", "5065": "阿里云", "3982": "新人", "3984": "权威", "9384": "江门", "3985": "格力", "3987": "清新", "8896": "老年人", "4717": "6000", "16104": "恩怨情仇", "10325": "版图", "3993": "碰到", "3995": "美照", "3998": "野草", "4810": "深刻", "4005": "5g", "12483": "推高", "6270": "妖股", "4611": "图鉴", "4006": "Facebook", "13462": "体力", "4011": "倒车", "4015": "升初", "7683": "跨越", "14959": "倾斜", "4017": "大阪", "4021": "张某", "4025": "悬念", "4028": "排队", "4031": "撒沙", "11941": "忽而", "17225": "新潮", "4349": "同台", "16660": "3600", "4033": "日报", "5506": "出身", "4038": "法拉利", "9302": "哈弗", "4039": "注销", "9823": "中旬", "4688": "揭晓", "4042": "签署", "7378": "冰箱", "4043": "素质", "4044": "继承", "15905": "南瓜", "16768": "争奇斗艳", "16440": "蘑菇", "4046": "超高", "4047": "遗产", "4050": "P", "11539": "杰哥", "6678": "烈士", "12090": "砍下", "15979": "大考", "4053": "三级", "4997": "印度人", "13417": "上方", "10594": "成效", "13391": "NPC", "4057": "公示", "4058": "凌晨", "9324": "将近", "8055": "薪资", "4059": "出色", "7672": "艺术节", "4062": "千山", "16351": "神枪", "4063": "变速箱", "7551": "做梦", "4065": "天空", "4067": "心目", "9644": "总量", "4071": "打印", "4073": "放大招", "9009": "包装", "9575": "半生", "4081": "蓝", "13853": "矿工", "17292": "模范", "6344": "Build", "6585": "陪练", "15579": "追杀", "4083": "谣言", "4084": "趟", "4088": "鉴定", "10903": "刷爆", "4090": "陈伟霆", "4094": "香", "11002": "建仓", "17397": "生死战", "4095": "马蓉", "10880": "俊凯", "4299": "块链", "4096": "魅族", "4098": "13日", "4099": "42", "4100": "上学", "10375": "贝尔", "9919": "延边", "4101": "中锋", "4102": "何在", "4103": "全省", "4128": "海洋", "4104": "前任", "11805": "仙剑", "12704": "送礼", "8156": "尽快", "4342": "债务", "4106": "副", "4109": "单机", "13280": "郎", "4111": "发售", "11369": "合辑", "4113": "合并", "8415": "生活费", "15522": "话语权", "4114": "吓", "4115": "场面", "4116": "垫底", "4119": "宇宙", "11157": "肇庆", "4120": "就算", "5977": "降临", "5168": "上档次", "4121": "律师", "4125": "替补", "14318": "封妖", "6152": "开业", "4126": "沃尔沃", "10160": "内外", "14826": "517", "4127": "洲际", "6700": "蝴蝶", "4890": "爆红", "4131": "竞选", "12997": "徐璐", "9588": "呼和浩特", "7014": "雀巢", "4133": "维护", "4134": "网贷", "4136": "艰难", "4145": "供应", "4139": "那英", "11764": "TOP10", "4140": "采摘", "8159": "干部", "4141": "霸主", "4142": "4万", "14820": "480万", "15993": "头顶", "4146": "农药", "4147": "出名", "12058": "爱国主义", "4148": "卡车", "8350": "巴掌", "4149": "唐", "7445": "撩妹", "4870": "引擎", "4150": "商家", "4151": "增收", "4339": "人和", "4153": "宅基地", "14774": "领奖", "15079": "大鹏", "4155": "尊重", "6770": "喝茶", "4156": "尽显", "10173": "匠心", "13396": "Z", "4157": "并非", "4745": "忽略", "11912": "尖叫", "15843": "全县", "4158": "张琳芃", "4162": "抢先", "17563": "蜂蜜", "4163": "披露", "14381": "抢断", "7499": "郑", "4168": "猴子", "5668": "邀请赛", "4169": "男女", "5691": "传媒", "10849": "上海滩", "4170": "秒变", "4171": "等于", "6947": "技校", "16148": "拼搏", "4173": "蔡徐坤", "7146": "红眼", "4175": "车身", "4176": "速腾", "7225": "商人", "11612": "符号", "4407": "南弦", "4177": "金庸", "10630": "智造", "12761": "002", "11844": "势不可挡", "15777": "中亚", "7147": "约会", "4178": "镇", "14046": "13.98-18.58万", "4179": "风云", "12099": "福布斯", "4181": "10%", "4183": "一日游", "6024": "击沉", "4184": "代价", "14670": "谈话", "6213": "酒驾", "5449": "海滩", "11511": "搞怪", "4186": "典礼", "4188": "净利润", "12094": "祈福", "7995": "曼谷", "4189": "出装", "14557": "看盘", "4190": "别克", "17504": "育儿", "9367": "月落星", "4191": "北汽", "5959": "美腿", "14020": "颜面", "14731": "金英权", "4192": "周星驰", "4850": "五十", "4194": "大胆", "4197": "巴克利", "5894": "半场", "15184": "惹不起", "4198": "强烈", "13646": "尔康", "4200": "征信", "4201": "怒", "13688": "意在", "15696": "666", "4203": "户外", "17330": "泥鳅", "4204": "拿走", "4205": "搭", "13392": "PERCENT", "4206": "故意", "4207": "整", "4210": "演唱", "4215": "确实", "9834": "假设", "6930": "屠", "16136": "投行", "8250": "轨道", "4216": "精致", "4295": "受益", "4221": "观点", "4516": "示范", "4223": "转身", "7566": "利", "10217": "契约", "4224": "长途", "8031": "甜瓜", "10282": "柯洁", "4225": "难忘", "7498": "转向", "6632": "外贸", "8326": "国际化", "4228": "领取", "4230": "4s店", "4709": "轻", "4231": "50%", "5619": "对付", "4232": "dnf", "8372": "播种", "15941": "咸阳市", "4233": "‘", "4234": "一百", "15485": "菊花", "9826": "乌镇", "4236": "丑闻", "4658": "上百", "4238": "个个", "7971": "戏曲", "8561": "实车", "4239": "乐视", "4240": "乘", "10740": "蒙", "6515": "带走", "4241": "互怼", "4242": "修复", "11545": "格外", "4245": "卖掉", "5392": "缺乏", "4246": "印尼", "4247": "同事", "5733": "本书", "9883": "垃圾话", "4251": "太平洋", "4252": "宁波", "13861": "离家", "6407": "水准", "16077": "弟", "10793": "阿兰", "4254": "实行", "14053": "26日", "8934": "重温", "10412": "雨落", "4256": "居住", "4257": "居民", "11682": "迈", "4258": "弄", "13545": "去中心化", "8066": "重要性", "7706": "2.5", "4259": "房源", "10629": "星爷", "15350": "烫", "4260": "捷达", "11876": "坠机", "13119": "炸开", "4261": "收回", "17674": "钟", "4266": "烂", "4268": "猛", "9057": "山地", "8179": "摇", "17393": "瓦良格", "4269": "猪场", "9855": "包含", "11671": "走遍", "4271": "笑话", "4272": "练习", "4274": "起售", "16212": "查获", "14058": "3成", "15855": "内塔尼亚胡", "5514": "啤酒", "6707": "赣州", "11420": "宋江", "17613": "越过", "4275": "超市", "9159": "自行", "16165": "揭穿", "4277": "逼格", "6689": "继母", "4278": "重组", "15854": "兽药", "4279": "金牌", "5475": "道德", "4281": "门口", "10198": "唯品", "4283": "黄晓明", "4284": "～", "4285": "VR", "6649": "怀", "5454": "看似", "4359": "底气", "10007": "申论", "5542": "特征", "4286": "不已", "4291": "出动", "9807": "VV", "6122": "刘雯", "4292": "利益", "4294": "却说", "4298": "地主", "4300": "外资", "4304": "屏", "4305": "弟子", "4306": "强悍", "5693": "侦探", "4307": "忘记", "4308": "持有", "4311": "林心如", "7461": "永和", "4887": "深入", "4312": "果断", "8990": "传言", "4314": "永久", "4316": "炸弹", "4317": "焦点", "4318": "珠海", "4319": "皇家", "7177": "骗子", "9059": "巴", "4321": "红场", "4323": "补课", "4324": "词", "4325": "跪", "7232": "增值税", "4326": "违约", "10081": "锐界", "14709": "选调", "4328": "追求", "10515": "参数", "4329": "退", "11308": "休", "4333": "餐饮", "11685": "连载", "4334": "27", "13705": "批判", "17132": "快充", "7355": "不敌", "4335": "37", "6377": "垂直", "4336": "【", "12134": "聚", "4337": "一带", "4338": "一眼", "14925": "亚文", "12817": "丝", "4341": "倒数", "4345": "公办", "4346": "兴趣", "4702": "罚单", "8885": "税延", "4348": "发出", "8421": "研学", "17192": "换来", "4351": "名家", "17696": "除外", "4353": "唱歌", "4354": "大奖", "4355": "头发", "4356": "学费", "5248": "业余", "13034": "推新", "5076": "上手", "4358": "平行", "4360": "开局", "4361": "张靓颖", "17147": "情牌", "4362": "影视", "9921": "开国", "5810": "大湾区", "4363": "情怀", "4365": "承包", "4366": "收官", "4368": "机器", "11048": "排位赛", "4369": "林", "4370": "欺负", "4371": "沦为", "4374": "直降", "4375": "硬", "4377": "第1", "10905": "剩女", "4764": "竞技", "9235": "一不小心", "10497": "出镜", "4381": "红海", "7873": "鉴赏", "4382": "翻身", "14601": "绕行", "16323": "白虎", "4384": "落", "4385": "葡萄", "5309": "衡水", "4387": "运用", "4388": "量子", "4389": "金额", "4391": "限价房", "11617": "粉红", "12977": "师德", "4393": "领土", "6304": "济公", "15548": "踏上", "4394": "领跑", "4395": "高地", "4398": "2000万", "4399": "P2P", "4401": "不幸", "4402": "主机", "4404": "党", "4405": "动画", "14981": "冲破", "4406": "助手", "4408": "参观", "11744": "2.0T配", "15782": "中间价", "4409": "口碑", "4411": "喜爱", "14012": "非物质", "4412": "嗯哼", "4414": "国防", "7894": "88", "7620": "搏击", "14165": "全额", "4789": "军装", "4415": "完胜", "13519": "加沙", "7999": "杨振宁", "13516": "制造商", "13859": "离去", "4416": "宗", "5518": "头疼", "4419": "干嘛", "4421": "弃", "6806": "新兴", "4723": "争夺", "4423": "影像", "10398": "铁甲", "4424": "德军", "4427": "月子", "14000": "陈翔", "4428": "横空出世", "4429": "治疗", "12941": "夹", "4430": "潘长江", "5947": "生意社", "4431": "爷爷", "8937": "闲", "4433": "确权", "10267": "收下", "8033": "看清", "4476": "公事", "4434": "社保", "15403": "祈祷", "4436": "积分", "4437": "米兰", "11477": "心头", "7137": "玛莎拉蒂", "4438": "组成", "4440": "终身", "10570": "屌丝", "12851": "俯瞰", "4444": "落泪", "6319": "老虎", "4445": "蒸发", "4448": "贫困", "11628": "羊毛", "8961": "10点", "4449": "赵薇", "8002": "梅威瑟", "13608": "太阳云", "12000": "景象", "9216": "黄埔", "4451": "路由器", "4452": "连生", "10027": "经济学家", "5806": "坚守", "4454": "采取", "4457": "随时", "15566": "迈出", "4484": "嫌", "4458": "隐患", "12699": "轰动", "15709": "BXi7", "4459": "黄渤", "14617": "肩膀", "5521": "宏光", "4462": "3月", "6886": "人群", "5962": "自学", "12562": "漳州", "16649": "2030年", "10220": "安德森", "4464": "G4", "16506": "过节", "4465": "TVB", "12427": "工事", "4466": "万科", "4467": "万达", "4468": "中型", "4473": "体验服", "13754": "春蕾", "12378": "多重", "4474": "侵略", "12438": "张艺谋", "4475": "偷", "4479": "动用", "11359": "厮杀", "4481": "增速", "5768": "马克龙", "4522": "访问", "4482": "大事", "7733": "元帅", "7612": "惨烈", "4488": "彩蛋", "4489": "徐坤", "12657": "药用", "15754": "一角", "5906": "增压", "4570": "林志玲", "14288": "女篮", "6706": "贵族", "4490": "微商", "5057": "迪拜", "13636": "寿光", "4491": "心动", "4493": "成交量", "7390": "古老", "4495": "手枪", "14227": "同命", "6142": "孔子", "4496": "抄底", "7356": "丝路", "4497": "抗议", "12918": "囧", "4498": "拜仁", "4499": "掀", "6991": "良田", "4500": "探访", "11036": "扫街", "4501": "撞脸", "4502": "文字", "4510": "温格", "10617": "放下", "13509": "出家", "4511": "焦虑", "6011": "伙伴", "4514": "痛", "4515": "百姓", "13007": "意图", "4517": "科普", "6863": "领略", "4520": "结合", "4521": "解", "6408": "永恒", "4524": "诠释", "11748": "515", "6766": "后排", "4525": "这下", "4526": "追尾", "4528": "闯", "4532": "1500", "4533": "4-1", "4534": "9万", "4537": "上天", "14717": "遴选", "4538": "下面", "5930": "星际", "4540": "义务", "4543": "事儿", "6372": "含泪", "4963": "状况", "15469": "致辞", "4546": "全都", "11871": "唏嘘", "4549": "加大", "9421": "硬派", "11725": "饱暖思淫欲", "16405": "耶鲁", "5004": "多头", "14161": "先行者", "4552": "喜讯", "4553": "坠毁", "12363": "地域", "14406": "搬到", "4556": "太空", "12967": "小孩子", "4558": "奥斯卡", "4559": "客机", "5510": "十八", "12915": "四处", "4560": "对外", "4561": "属", "15664": "112-102", "13175": "立案", "4562": "并不", "11125": "硬笔", "4566": "指纹", "4568": "整理", "6919": "大司马", "4569": "智商", "11677": "躺赢", "4575": "熟", "4576": "爆冷", "5081": "伟人", "16734": "上号", "4577": "用于", "4579": "省级", "7056": "凝聚力", "5860": "职工", "8786": "围攻", "4581": "短信", "7018": "风景区", "4586": "老大", "4587": "胜率", "7954": "富豪榜", "4588": "获胜", "4591": "部长", "15204": "抬", "4593": "首家", "4594": "高调", "4596": "98", "4597": "MIX2S", "10859": "主体", "4599": "中招", "4600": "亲戚", "4604": "几率", "10534": "土售武", "9196": "闭幕", "4605": "出战", "4606": "券商", "16311": "用水", "9122": "熊黛林", "7084": "对着", "9060": "幻觉", "4607": "加码", "15704": "900万", "4608": "化工", "4609": "卫视", "5113": "慌", "13541": "博彩", "4612": "外出", "4613": "外星人", "4615": "嫂子", "12806": "一二", "7657": "疑", "4619": "平时", "7364": "人体", "13184": "素养", "4620": "当下", "13137": "玉皇大帝", "7848": "硬盘", "4623": "想法", "16908": "参照", "4626": "手续", "4631": "游记", "8059": "谈恋爱", "17098": "年少", "4677": "工程师", "4633": "特效", "4634": "相亲", "9407": "环线", "7338": "马斯克", "13564": "吐血", "17562": "蚂蚁花", "4638": "表白", "4639": "观看", "10329": "球王", "4640": "讨论", "4641": "证实", "4643": "超跑", "5742": "生活会", "10664": "流入", "4644": "输球", "4645": "辽宁舰", "8151": "宜昌", "4646": "迅速", "6034": "哈里", "4648": "金刚", "14024": "饭菜", "7015": "雷克萨斯", "4651": "韩信", "5434": "幻想", "4653": "10胎", "4655": "845", "4657": "一哥", "4659": "书画", "4904": "赛前", "4660": "买单", "10834": "HR", "14055": "2点", "5077": "上车", "4661": "产业链", "14264": "多余", "4662": "人均", "10224": "家长群", "4664": "众", "6844": "获批", "12575": "独眼龙", "14402": "提示性", "4665": "公开赛", "17087": "巨款", "4666": "出游", "5834": "挂机", "5312": "赋能", "4668": "十三", "4669": "地下", "5868": "跌破", "4670": "增幅", "7157": "舰", "13127": "爬山", "4671": "壁纸", "7817": "民用", "6072": "狙击枪", "4672": "大腿", "7248": "崔永元", "4673": "头像", "4675": "宽带", "7945": "好坏", "4678": "巨人", "4679": "带动", "5151": "赛程", "9295": "各项", "4682": "张国荣", "4686": "成果", "4689": "撑", "4691": "服务器", "15884": "刺", "7703": "骨", "4706": "讲述", "4808": "有名", "13896": "联名", "4693": "欢乐", "6064": "梯田", "5893": "医学", "15540": "走私", "4695": "泄露", "16848": "六盘水", "7459": "水下", "4696": "波兰", "9043": "守", "4699": "租赁", "4701": "答出", "4703": "自制", "11971": "授予", "4705": "认证", "4713": "阿森纳", "7628": "早就", "4715": "02", "11286": "上衣", "5122": "既然", "4716": "1.5", "15045": "四百万", "4718": "90%", "11983": "敲响", "4722": "临近", "11033": "打成", "9265": "全体", "4725": "假期", "4726": "做空", "6280": "惊奇", "4728": "化身", "10836": "N", "4803": "怼", "4729": "区块", "17282": "树叶", "16474": "责任人", "4731": "国画", "4732": "头号", "4736": "寂寞", "4737": "寻", "16611": "鹿头", "4738": "小姐", "4739": "工人", "15186": "懵逼", "12170": "路段", "13404": "一举", "17108": "开辟", "4741": "帽子", "17322": "沮丧", "4743": "循环", "5884": "依据", "4746": "感叹", "4749": "改动", "4750": "新三板", "15691": "4S", "4751": "新娘", "11986": "新光", "4752": "显卡", "4753": "暗示", "17080": "岛上", "4756": "派", "9775": "野果", "14634": "苗寨", "12984": "废弃", "4759": "用车", "6664": "有意", "8860": "炒房团", "4856": "公式", "4760": "田园", "15110": "宝贵", "6538": "新兵", "8363": "手套", "4762": "称霸", "6708": "车门", "4765": "累计", "17415": "直属", "6393": "成名", "9126": "猜猜", "10462": "世人", "10589": "心思", "4766": "羽毛球", "4767": "自由行", "5527": "征战", "4768": "良机", "4769": "装扮", "11061": "料", "4771": "蹭", "8751": "储蓄", "4772": "输给", "5739": "爸", "4773": "雪山", "10259": "据", "5183": "危害", "8957": "100年", "5115": "扩张", "4775": "17万", "12545": "汪", "4776": "1日", "8280": "不胜", "15751": "一席话", "4777": "300万", "4778": "520", "4779": "92", "12840": "人脉", "4781": "一中", "12622": "紧缺", "7472": "盛赞", "12337": "参选", "4782": "中断", "4783": "临时", "10420": "预订", "4784": "二十年", "14834": "BTC", "16202": "有效性", "6448": "那天", "11830": "几月份", "13869": "突变", "4785": "二线", "4787": "任性", "5546": "着急", "17596": "豪", "4788": "军用", "13542": "卡皇", "4791": "反转", "7380": "到达", "13666": "序幕", "5213": "泪", "4793": "嘲笑", "8359": "惊天", "12118": "绕飞", "16221": "梦醒", "4796": "大户", "13924": "藏头", "11887": "大手笔", "4797": "大结局", "16781": "五环", "4799": "孤独", "13014": "扑救", "13215": "苏亚雷斯", "4801": "展开", "4804": "挂牌", "8719": "5号", "4805": "振东", "13655": "工程款", "5775": "世外桃源", "4806": "无人", "17039": "季军", "4809": "涉嫌", "4812": "游行", "12331": "十条", "7296": "短裙", "15907": "卡莎", "4814": "熊猫", "7820": "汉兰", "4815": "王妃", "16310": "生活照", "4816": "玺", "10414": "静", "6926": "对策", "4818": "离合", "6328": "路边", "4820": "绝", "4821": "联系", "4822": "肚子", "4949": "强行", "15588": "醉人", "4823": "胜地", "13219": "英格兰", "4829": "诺贝尔奖", "16624": "$", "4830": "赚到", "7953": "家家", "10555": "孔蒂", "5021": "投资人", "4834": "邓超", "14608": "美盘", "4838": "须", "4840": "龙湖", "5293": "爆出", "4843": "40年", "6939": "悟", "4846": "一道", "11198": "轻风", "4847": "不对", "16025": "定律", "4849": "中学生", "4854": "信心", "14311": "宠儿", "7222": "吐", "12159": "觉悟", "4855": "充当", "9540": "两三", "16144": "招黑", "4857": "军工", "8889": "红军", "15590": "重排", "15633": "面试官", "7074": "喷发", "4858": "冠", "5679": "99%", "7347": "MAX", "12110": "红星", "4859": "分数", "4861": "动挡", "4862": "原则", "8979": "不离不弃", "4863": "句子", "4866": "培训班", "4868": "复制", "6330": "辣椒", "4871": "忽悠", "4873": "悄然", "4874": "打法", "7615": "所谓", "4875": "扫", "5713": "始终", "4876": "拉开", "17179": "扮相", "5616": "婚前", "6685": "穿上", "14398": "探案", "4877": "摄像头", "16689": "Live", "4878": "改善", "6549": "泉州", "4880": "文艺", "10143": "今起", "4882": "有机", "8666": "联机", "4883": "本质", "7630": "暑期", "6160": "抓紧", "4884": "歌王", "14968": "全责", "10784": "酷狗", "6602": "临死", "9170": "觉", "4885": "没事", "4886": "泰伦卢", "15963": "坐标", "4888": "温州", "11633": "老酒", "4889": "热销", "4893": "窒息", "14179": "冲高", "13894": "老款", "4934": "参赛", "4894": "练习生", "4895": "终止", "17010": "失眠", "5274": "恭喜", "4896": "结", "9228": "AMG", "4897": "绝望", "13198": "老友", "4899": "置业", "4906": "过时", "6528": "扔掉", "4908": "通用", "4909": "遇害", "4910": "野菜", "4911": "隆重", "8833": "新任", "11354": "单防", "4914": "黄河", "13550": "取经", "15759": "三一", "4916": "47", "17656": "速成", "4920": "中单", "9812": "三类", "4921": "中山", "9289": "单杀", "10505": "副总裁", "7395": "商场", "4923": "之外", "15118": "家具", "6040": "大门", "4926": "代替", "7197": "互联", "4927": "供", "4928": "保定", "13579": "喜报", "5347": "大秀", "4930": "克制", "10813": "高情商", "8931": "避险", "4931": "军方", "12771": "4:1", "16326": "盈莹", "5091": "凯", "8223": "福音", "4932": "动漫", "14307": "宋朝", "4933": "十二", "5288": "治理", "4935": "发表", "4936": "可怜", "16811": "依法", "4937": "呈现", "5984": "鸟巢", "4939": "增持", "4942": "好评", "4944": "官宣", "8706": "饮料", "10954": "国羽", "4945": "富翁", "8764": "加持", "4946": "将要", "8581": "怪兽", "4947": "干预", "4948": "开机", "4950": "成语", "11288": "不快", "5297": "离队", "4951": "效应", "11145": "组团", "4954": "果子", "5901": "回落", "4957": "活力", "10038": "脸红", "4958": "流", "9342": "张震", "4959": "浪", "4960": "海试", "14356": "怀里", "4961": "潮流", "4962": "火力", "4964": "生下", "12096": "祭", "7335": "首战", "11953": "房奴", "4965": "皇冠", "4969": "笔试", "4970": "缺点", "4971": "聊", "7804": "有钱", "4973": "跨境", "17583": "詹妮弗·劳伦斯", "5161": "8号", "4974": "近况", "4976": "钓鱼", "10106": "黄圣", "5547": "知识点", "4977": "门店", "5036": "温馨", "6396": "指书", "16849": "共用", "9692": "梅拉尼娅", "4980": "鲁迅", "4981": "黄子韬", "14190": "到访", "4982": "55", "17521": "舒畅", "4984": "三点", "13675": "当面", "4985": "上汽", "4986": "中兴", "4987": "乌龙", "11567": "满屏", "4988": "产", "4990": "传闻", "7339": "魔鬼", "4991": "作家", "4993": "刘雨欣", "4994": "创作", "17592": "试管", "16855": "军帽", "5873": "鸟", "4996": "加剧", "4998": "厂家", "8998": "兼顾", "5186": "厚道", "5001": "吓人", "5003": "外地", "6383": "奶爸", "5005": "大咖", "9496": "韶关", "7362": "交房", "5009": "实话", "16175": "教研", "7805": "望", "7680": "财政部", "8238": "英菲尼迪", "5010": "实践", "6502": "大增", "5011": "导游", "12161": "语法", "13835": "甩锅", "6366": "入场", "5012": "帕萨特", "5013": "常规赛", "11070": "最先", "5015": "张学友", "5016": "微", "5017": "德罗", "5019": "打球", "5020": "投诉", "5022": "报警", "5025": "排量", "10443": "BOSS", "5026": "提取", "5029": "日媒", "5085": "光棍", "5031": "李冰冰", "5032": "案", "11163": "自述", "15214": "拥挤", "5254": "促", "13599": "夏窗", "5033": "概率", "5037": "物联网", "6288": "搬砖", "11330": "关门", "5038": "琅琊榜", "5039": "甜美", "5040": "男方", "6771": "四十", "5041": "白菜价", "12253": "TV", "5042": "看来", "5044": "第3", "10990": "布加迪", "10970": "奕泽", "5048": "耐用", "5052": "访", "5053": "谢", "7704": "高新", "5055": "超强", "16970": "坐车", "5056": "辣", "5059": "遇上", "5060": "遗忘", "6220": "麻将", "5063": "配合", "6723": "高圆圆", "5064": "配角", "9702": "波音", "5066": "降到", "5068": "高峰", "8142": "天然气", "10550": "奇才", "14727": "重构", "12876": "几百万", "5069": "齐聚", "5070": "18万", "5072": "3亿", "5074": "万里", "7304": "粗", "5075": "三口", "12605": "砍价", "17558": "蓝军", "7403": "塔", "5079": "亚军", "5080": "仅仅", "5082": "低估", "10390": "遗嘱", "5974": "锻炼", "9224": "800万", "5083": "何方", "5086": "入驻", "12392": "失传", "11894": "大钱", "5087": "全景", "5092": "击中", "5097": "励志", "14682": "赶回", "5101": "备受", "6429": "考点", "6581": "镇压", "5102": "复杂", "7555": "公众", "5103": "外形", "13783": "欧成", "5104": "大涨", "13949": "赞叹", "7767": "奥迪A6L", "5105": "失联", "5106": "奶妈", "5107": "学者", "5108": "幕", "15701": "800亿", "5110": "德甲", "5111": "性格", "6098": "进城", "5112": "悄悄", "6224": "MSCI", "5114": "才华", "5116": "担当", "9607": "夺取", "12773": "5.19", "14878": "一年四季", "5520": "学员", "5119": "撤离", "14073": "D", "5121": "方", "7385": "原有", "6907": "叫板", "5124": "日系", "5125": "本月", "5130": "用品", "5131": "甩", "5132": "申花", "5137": "等到", "5138": "等级", "5140": "绝招", "9810": "│", "11538": "村子", "5141": "绝美", "5142": "编程", "5144": "被迫", "7582": "壮观", "5595": "公共", "6892": "保存", "5146": "议会", "5147": "证", "5148": "谍照", "12383": "大楼", "7992": "显示器", "10959": "地名", "5149": "账户", "8072": "险", "5150": "贷", "5153": "轿跑", "5154": "里程", "5156": "青山", "9476": "赖", "9940": "戳", "5157": "预约", "5159": "01", "9845": "冻结", "8551": "大修", "5160": "5亿", "5162": "F35", "5164": "P20", "5165": "Pro", "7388": "变得", "5166": "万亿", "5167": "上架", "7926": "单元", "6921": "奶茶", "13240": "试图", "5170": "严肃", "5171": "交易所", "5174": "保姆", "15427": "精彩纷呈", "13793": "气派", "6572": "荷叶", "5176": "再婚", "8185": "无关", "5177": "冒险", "11742": "160万", "5179": "剩下", "8090": "不起眼", "5182": "博越", "15656": "麻花", "5184": "即使", "14688": "车顶", "5189": "合格", "5190": "吉尼斯", "5191": "唯美", "5194": "圈粉", "5195": "坚决", "11573": "熊孩子", "16264": "涂装", "5196": "基因", "5199": "帮忙", "6148": "岳母", "12076": "电台", "5201": "情绪", "5205": "新建", "5206": "新星", "5207": "新机", "7263": "数百", "5208": "李克强", "5210": "构建", "5211": "核弹", "5214": "泰达", "15239": "撇", "5218": "澳门", "5219": "熟悉", "9787": "降落伞", "5757": "认出", "5220": "爆表", "5222": "生病", "11931": "开拓", "5223": "盛典", "10559": "安全带", "5227": "脑洞", "5228": "自考", "5231": "谨慎", "14640": "蓬勃", "15618": "陈志朋", "5235": "题材", "5236": "餐厅", "5237": "饲料", "14845": "NS", "15262": "日志", "10430": "马赛克", "5238": "高中生", "5240": "高配", "6807": "施压", "17072": "屁", "8083": "CP", "5241": "鬼子", "5244": "911", "6493": "司法", "10170": "刮花", "5245": "GK", "7128": "浏览器", "11913": "尾部", "6934": "年检", "5249": "中医", "5251": "丰收", "5545": "皮卡", "13968": "适宜", "5255": "公斤", "10687": "用心", "5256": "公民", "12770": "4500", "5674": "频频", "9353": "提现", "5258": "创建", "16544": "钢筋", "8745": "何为", "5260": "君子", "5261": "商城", "5262": "固定", "6074": "瘫痪", "17373": "热身", "5264": "多数", "5412": "AG", "5265": "大专", "15851": "养猪场", "5266": "大骂", "5269": "实惠", "5270": "对不起", "15760": "三四", "11672": "超乎", "6035": "噪音", "15021": "发怒", "5272": "巅峰赛", "7579": "回乡", "5273": "心灵", "8649": "红楼", "5587": "举措", "5275": "惊现", "7421": "德帅", "11714": "雪藏", "5277": "指责", "10774": "逐梦", "5279": "摩托", "5280": "普遍", "8918": "读错", "5283": "概念股", "5284": "正能量", "10278": "本色", "9969": "有史以来", "5285": "武侠", "7686": "进驻", "5433": "年入", "11640": "胜出", "5286": "母校", "5287": "沪", "5289": "活动周", "5291": "滥用", "5295": "石", "5296": "破门", "7927": "单排", "15945": "哈工大", "5298": "第三方", "9017": "古装剧", "5300": "紧凑型", "6473": "不说", "5301": "续约", "13394": "S7", "5302": "编制", "5304": "老百姓", "11712": "隐居", "5308": "荷兰", "11395": "士官", "5310": "裤子", "5317": "远程", "16066": "座山", "5318": "错失", "17119": "形似", "6400": "整改", "13548": "发际线", "5319": "闫妮", "5323": "高效", "7501": "重拳", "14665": "认领", "8166": "恐惧", "5324": "黄圣依", "5325": "11号", "5326": "14日", "9105": "求婚", "5327": "43", "5328": "Uber", "5329": "nba", "9984": "正义", "5330": "一姐", "9121": "点亮", "7467": "特岗", "5331": "上网", "5332": "上面", "5335": "促进", "5336": "公平", "9192": "醒", "5337": "冯小刚", "15774": "丝毫", "14291": "好奇", "5339": "出征", "5340": "到手", "5343": "可行", "14995": "初次", "5344": "圣地", "12307": "农行", "5346": "大使", "5349": "寄", "10974": "孤岛", "9538": "不忍", "16550": "镀晶", "5352": "尚", "17611": "超长", "6314": "目的地", "5353": "尝试", "13825": "牙", "5358": "床", "17517": "自愧不如", "8107": "几线", "5359": "库存", "15541": "趁早", "5361": "弗格森", "5362": "怎", "14255": "坐骑", "5363": "慈善", "5365": "手中", "5366": "打赢", "11630": "群雄", "5367": "授权", "6895": "关羽", "5368": "接下句", "13309": "零距离", "7136": "狗狗", "9451": "节省", "5372": "明确", "5374": "李连杰", "5375": "栽", "5376": "消防", "5379": "珍贵", "13413": "上交", "9436": "绑", "5380": "生长", "8674": "莱昂纳德", "5381": "男主", "5382": "痛哭", "5383": "科幻", "15626": "雷電", "5384": "租金", "13113": "濒临", "5386": "答应", "7279": "流出", "5387": "签订", "5388": "红米", "5389": "纪实", "17631": "迈克尔", "10590": "念念不忘", "5390": "纹身", "5391": "统计", "9094": "月底", "9767": "运河", "15199": "投影", "5397": "菲", "13895": "联发科", "16509": "进出", "5399": "质押", "5402": "辱骂", "5405": "鬼", "10573": "巧妙", "13073": "杨蓉", "8847": "比如", "5763": "运输机", "5406": "麦迪", "5407": "黑客", "7534": "世上", "7348": "QG", "17095": "幂幂", "5408": "39", "10848": "上午", "5409": "44", "6824": "甘肃省", "5410": "52", "7144": "第9", "13125": "爆改", "5411": "730", "5413": "一体", "5414": "一度", "5415": "一月", "5416": "乒乓", "7585": "大唐", "5420": "北上", "12288": "倒退", "5421": "卡牌", "14563": "短语", "15811": "传宗接代", "17362": "渡过", "17205": "搅乱", "5422": "吃亏", "6654": "拓展", "5423": "名牌", "5425": "地狱", "5426": "地里", "9999": "片段", "5427": "大蒜", "5428": "大队", "5429": "失利", "5430": "好莱坞", "9412": "皮蓬", "5994": "Ghappy", "5432": "小三", "5435": "德州", "7073": "品味", "9557": "入狱", "5437": "扎堆", "5438": "扬州", "5439": "护卫舰", "5440": "持股", "9446": "腹肌", "7512": "高一", "5441": "接触", "5443": "暴击", "16840": "全城", "5702": "史蒂文斯", "5444": "柴油", "10826": "25分", "5446": "检测", "8446": "草莓", "5447": "水泥", "13418": "下凡", "5450": "深山", "5452": "爱心", "5458": "结爱", "12052": "灾区", "6890": "位列", "5459": "美术", "15923": "古朴", "5461": "联动", "14219": "口岸", "5462": "自家", "5464": "西湖", "5467": "超音速", "7539": "乃", "7544": "亲吻", "5468": "躲", "11596": "真面目", "5469": "车位", "11820": "全班", "15442": "绝非", "16395": "美版", "5471": "这不", "16718": "word", "5472": "进一步", "5473": "通关", "11416": "孤存", "5474": "造价", "5476": "隆多", "5478": "领袖", "5479": "高位", "5480": "高德", "11046": "捕捉", "5481": "高跟鞋", "5482": "麒麟", "5483": "默默", "15698": "7.62", "5485": "60万", "5486": "80%", "5488": "C位", "5491": "iphone", "5492": "oppo", "13561": "同期", "5494": "三江", "11942": "态势", "7875": "铜", "5496": "不当", "12002": "曲阜", "5500": "优缺点", "5604": "卓尔", "15031": "名茶", "5570": "道具", "5501": "入侵", "5502": "全线", "5503": "公婆", "6078": "签下", "8747": "保值", "10039": "致富路", "5504": "关爱", "7423": "悍将", "5507": "制造业", "5508": "刷新", "5509": "加价", "5511": "卖给", "10279": "杜鹃花", "11589": "盛", "14437": "有失", "8012": "海沟", "9840": "典范", "13408": "一站式", "5512": "占据", "6179": "毁掉", "9526": "B轮", "5513": "可靠", "5515": "困境", "5516": "圆梦", "12156": "观战", "5517": "坠落", "9250": "代表团", "5519": "奚", "15765": "上诉", "5793": "分红", "6579": "郜林", "5522": "实体店", "13794": "气炸", "11549": "欢喜", "5524": "师生", "7549": "便利店", "14711": "途达", "5548": "秘籍", "5525": "广", "6275": "帮扶", "5526": "形容", "14620": "胡润", "5529": "护士", "10406": "除草", "10817": "龙王", "5531": "文化节", "16815": "保管", "5533": "新西兰", "5534": "暂时", "5535": "暑假", "5536": "水面", "10471": "争取", "5537": "油门", "6037": "地段", "5538": "流水", "13500": "写下", "5540": "爆笑", "15179": "情意", "5541": "片酬", "14979": "内讧", "16037": "小岳岳", "5543": "用途", "10912": "华盛顿", "13472": "倔强", "5544": "电瓶", "15897": "匪夷所思", "5550": "笔记", "5552": "经纪人", "14736": "链条", "17671": "金贵", "9089": "易建联", "11811": "佳航", "5555": "英镑", "14189": "创办", "5557": "裙", "9740": "莘莘学子", "5707": "团战", "5559": "评分", "5560": "试卷", "5561": "豪言", "5562": "轩逸", "5563": "转让", "14285": "奇石", "15978": "大打出手", "6788": "庄园", "5564": "载", "5565": "输掉", "5568": "逸动", "5571": "邂逅", "5572": "酷派", "14933": "代购", "5576": "055", "13489": "公分", "5577": "700", "12227": "龙舟", "5579": "B级车", "6449": "配备", "5580": "CC", "9749": "说服力", "9857": "升级版", "5582": "EOS", "5584": "一目了然", "17343": "海信", "5585": "万万", "16188": "日程", "16086": "彻夜", "5588": "书记", "5590": "人称", "7605": "开枪", "16245": "沐浴", "5754": "虐", "5591": "使馆", "5592": "促销", "5594": "入住", "7141": "癌症", "5596": "养殖户", "5597": "出租", "5599": "制", "14632": "花开", "5601": "劣势", "13535": "半壁江山", "5602": "动人", "8636": "畅游", "5603": "动手", "9274": "出乎意料", "5606": "参考", "5611": "够用", "14030": "驾驶人", "5613": "大人", "7909": "位数", "5614": "奇骏", "6418": "盛开", "8367": "拿出", "5620": "少儿", "5621": "平方米", "14074": "Excel", "5622": "庆", "8366": "投机", "5623": "庆生", "5624": "开箱", "9098": "末", "13994": "锄", "5627": "改成", "5629": "晚间", "6897": "出让", "5631": "杀死", "15822": "保芳", "17138": "总统们", "5663": "车窗", "5632": "果实", "5635": "模拟器", "5636": "武力", "5638": "汉堡", "5639": "沉迷", "5641": "淘汰赛", "5753": "获奖", "5642": "混血", "15467": "自语", "5646": "熊", "9750": "调皮", "5647": "特产", "5650": "百公里", "8682": "貂蝉", "5651": "穆里尼奥", "5654": "芳华", "7577": "哥", "6773": "回暖", "5655": "萨拉赫", "16266": "淋漓尽致", "8974": "km", "5657": "西北", "5661": "诺贝尔", "6911": "同情", "5666": "远景", "5667": "造出", "5669": "钢铁", "7220": "发福", "5671": "防住", "9067": "当成", "5676": "12年", "15953": "回味", "5956": "纠结", "16835": "光谷", "6541": "施工", "15787": "之二", "5677": "3000万", "5678": "600", "5684": "下一代", "10993": "常程", "14978": "内在", "5686": "不顾", "11272": "ST", "5922": "抱怨", "17496": "老王", "5688": "专门", "13290": "长治", "5689": "中场", "8904": "荣", "12059": "片场", "5865": "解体", "5690": "主持", "5692": "你好", "15859": "军嫂", "11203": "送别", "5696": "冰冰", "5698": "前行", "7789": "拳皇", "5699": "卡顿", "14295": "婺源", "6014": "保留", "12908": "否决", "5700": "卫冕", "5701": "卷", "5709": "外挂", "5712": "女婿", "10910": "努比亚", "15459": "老实", "5714": "委员会", "16281": "漫长", "14772": "顽强", "5715": "定期", "5716": "定档", "5718": "寻求", "5881": "乡下", "14066": "74", "5719": "小众", "5720": "币圈", "11328": "兰陵", "6480": "公安", "5721": "并且", "5722": "开花", "12436": "度假村", "5725": "当天", "10234": "开学", "5727": "性质", "5729": "按揭", "5730": "无论", "5736": "柬埔寨", "5741": "现货", "5744": "真人", "12190": "重量", "5745": "礼", "16147": "拳坛", "5748": "管理层", "5755": "衰落", "10358": "苏35", "13382": "Honda", "5758": "讲究", "5759": "谜", "9599": "夕阳", "5761": "身家", "7342": "360手机", "12919": "围剿", "14792": "鸡汤", "5764": "送到", "5765": "透", "15810": "伞", "5766": "难看", "8662": "考核", "10653": "毁车", "11951": "慰问", "5769": "22万", "7090": "平板", "6751": "全市", "9246": "人身", "6635": "大米", "5770": "4-0", "5772": "5000万", "5773": "51", "5778": "二级", "11340": "划", "5783": "佳句", "5784": "信仰", "5785": "做成", "14394": "损害", "16442": "血染", "5789": "内心", "5790": "冲锋枪", "17650": "选美", "7906": "优美", "5791": "凉凉", "7522": "5日", "5792": "减", "7808": "李小龙", "5794": "功臣", "5796": "加工", "5798": "匹", "6791": "患", "5799": "单节", "8327": "图文", "6555": "玩具", "5800": "号码", "16275": "湘西", "10095": "飞人", "5803": "咘咘", "7138": "珍珠港", "9887": "复兴", "5804": "回老家", "5805": "在职", "6754": "兴奋", "5807": "型号", "6598": "丁", "5812": "女方", "14209": "午餐", "5929": "旧照", "5814": "学好", "6673": "涉及", "5815": "定义", "6460": "1-1", "9435": "纽交所", "5816": "家电", "8781": "唐朝", "9930": "徐峥", "5818": "小冉", "5819": "小国", "8057": "评估", "7553": "充钱", "7714": "EZ", "14240": "售卖", "5820": "山寨", "16321": "白热化", "9391": "涂鸦", "11766": "iPad", "5821": "常识", "5822": "年纪", "5823": "度过", "5828": "德系", "15108": "定损", "5829": "懂车", "5830": "懵", "6353": "中间", "5831": "手段", "5832": "打爆", "12232": "3200", "16999": "大成", "15014": "卡瓦尼", "6137": "地下城", "11124": "硬币", "15583": "途乐", "5833": "扫码", "5836": "政府军", "6170": "故乡", "7832": "热闹", "5838": "普拉多", "9217": "1.5L", "7257": "抢人", "5841": "杨丽娟", "12811": "下图", "5842": "栈道", "5844": "洛杉矶", "7092": "废", "15596": "金晨", "5846": "牌", "5847": "独自", "5848": "男朋友", "13844": "看透", "5849": "留给", "5850": "直到", "9091": "曲", "12054": "热爱", "13690": "成人礼", "7765": "失控", "5854": "答主", "5855": "红利", "15433": "红极一时", "17608": "赵继伟", "5857": "美剧", "5858": "老将", "7946": "好戏", "7863": "赶走", "5859": "耍", "5861": "膝盖", "5863": "苗苗", "5866": "访谈", "5869": "这话", "5870": "香锅", "5874": "30亿", "7441": "握手", "15591": "重用", "6108": "不慎", "5875": "45%", "11459": "广场舞", "5877": "GIF", "5878": "上去", "16241": "江浙", "5880": "中小企业", "9566": "别离", "5883": "份额", "5885": "保利", "5892": "匹配", "5895": "单打", "13105": "涨势", "17152": "愈演愈烈", "5898": "古诗词", "5902": "国脚", "12394": "失灵", "5904": "堆", "8000": "林志颖", "5908": "大山", "9257": "俏皮", "9188": "逍客", "6699": "英特尔", "12125": "美指", "14144": "传承人", "5909": "奥迪Q5", "5911": "学区房", "5912": "家门", "5916": "年报", "16992": "夜盘", "5918": "开拍", "9292": "发财", "5919": "恐怕", "5924": "指挥", "5925": "挖矿", "9885": "处置", "5926": "摆", "11991": "无用", "5927": "放过", "6059": "推介会", "5931": "春晚", "5932": "果农", "5939": "混乱", "7754": "周报", "14079": "OV", "5940": "激励", "5941": "火炮", "5942": "灯泡", "15390": "盲僧", "5945": "玫瑰", "6430": "自从", "5946": "环比", "16217": "格调", "9393": "涨跌", "11670": "走下坡路", "15120": "寂静", "16476": "购置", "5948": "男性", "5949": "白酒", "10753": "走秀", "6884": "云集", "5952": "神坛", "9666": "放量", "6023": "几十万", "5953": "种地", "5954": "突击", "5955": "紫", "6922": "娇妻", "8461": "远方", "5957": "经理", "5958": "网民", "15635": "音乐节", "10922": "发愁", "5960": "聚会", "11911": "封号", "5961": "聪明人", "5963": "航空母舰", "14080": "PDD", "5964": "荣威", "12430": "差价", "7743": "删", "5966": "诗歌", "5967": "贫穷", "13816": "清静", "5968": "赛", "8199": "正版", "8801": "宋祖儿", "10562": "宣称", "15965": "坐稳", "6456": "魂", "5969": "趣味", "13036": "插曲", "5970": "辟谣", "5971": "迷茫", "5972": "重型", "5973": "钞票", "7203": "伴", "5976": "阿姨", "6543": "最少", "5978": "限时", "5980": "陷", "15112": "宠成", "5987": "1200", "5990": "63", "10184": "及格", "16456": "观赏性", "5993": "GS8", "5996": "一共", "11618": "粒", "5997": "一千", "9358": "收评", "10326": "猛料", "10680": "狠货", "5998": "一家人", "9205": "题目", "11225": "难过", "6843": "荒地", "12276": "五月天", "5999": "一日", "12642": "聊斋志异", "6000": "三成", "16519": "选房", "7691": "选中", "6564": "约谈", "10775": "通告", "15177": "悔恨", "13222": "落败", "6002": "下册", "11425": "宝座", "6003": "主题曲", "6695": "职教", "6009": "亲手", "6010": "付费", "9683": "机动性", "6013": "作者", "8529": "分数线", "6015": "元素", "13135": "独有", "6017": "全资", "6019": "兰博基尼", "6020": "内线", "6558": "用地", "6022": "农户", "10415": "面谈", "16320": "白帆", "9473": "负值", "6025": "博弈", "7677": "诽谤", "9299": "吻", "6027": "各自", "6028": "合约", "6033": "启示", "6036": "回收", "6518": "底部", "6038": "培育", "11856": "双线", "6039": "大牌", "6041": "天窗", "11164": "臭", "11608": "称之为", "16563": "附体", "6043": "失", "9507": "黄家驹", "12200": "阻碍", "6044": "子公司", "6046": "小吃", "10726": "胡塞", "6049": "总价", "6051": "恶意", "9685": "李嘉欣", "12235": "460", "13332": "魔", "15962": "在内", "6052": "房产税", "6056": "投篮", "14205": "北师大", "6058": "挑选", "6060": "放假", "7734": "充", "6061": "时速", "6138": "大奖赛", "12542": "永", "6062": "昨日", "6063": "普及", "9777": "银", "6066": "波动", "6068": "游泳", "6069": "灵活", "16466": "调节", "6070": "点燃", "6073": "番", "11039": "抵抗", "6075": "盛世", "6080": "精美", "6081": "纠纷", "9927": "弹射", "6082": "组图", "7405": "外籍", "6085": "背锅", "8242": "衬衫", "6087": "袁", "6088": "装甲", "6092": "购房者", "6394": "扣分", "10091": "音质", "6095": "超人", "6097": "转移", "8240": "药明康德", "6102": "限", "17350": "液晶", "6104": "高新区", "9142": "破冰者", "6416": "疏影", "6107": "上海站", "6110": "争冠", "7104": "拼命", "6113": "使命", "6254": "勇气", "11745": "28年", "6114": "军", "6116": "几千", "11519": "散文", "8105": "入口", "15565": "过闸", "6117": "凯美瑞", "14279": "天成", "6120": "分裂", "6123": "剧照", "9355": "擦", "7772": "寅", "6124": "剩余", "6125": "剪", "9528": "CR-V", "14876": "一千多", "7109": "放飞", "6126": "动物园", "6127": "半岛", "6131": "合体", "6132": "后备箱", "6135": "回升", "6139": "大比分", "7289": "瑞虎", "8968": "AC米兰", "6143": "孟", "6147": "岳云鹏", "6149": "巡洋舰", "17712": "韩系", "6151": "希腊", "6173": "斩获", "6153": "开口", "6154": "异常", "7583": "复古", "6155": "引来", "6158": "慢慢", "6161": "抗", "7153": "耗电", "9890": "大哭", "6164": "插", "13978": "道教", "9527": "CDR", "6166": "揭幕", "6167": "搜索", "6168": "改名", "6169": "放开", "7596": "小幅", "6171": "数钱", "14586": "笑谈", "6172": "整合", "16026": "宝能", "6175": "无比", "6178": "来不及", "6180": "比起", "6181": "民俗", "7896": "X6", "17333": "泰和", "6186": "激动", "14657": "西双版纳", "8827": "攻打", "6188": "烦恼", "9649": "惩罚", "15717": "GLE", "7948": "嫁入", "6189": "物业费", "6191": "环球", "6193": "眼光", "14683": "起价", "6194": "禁忌", "6195": "积蓄", "6196": "穆帅", "15097": "婚内", "6199": "美股", "7292": "电气", "15731": "Sanhok", "6205": "观致", "11962": "拘留", "6206": "解除", "6208": "负债", "11280": "°", "7457": "母", "6211": "跳海", "12480": "探险家", "6212": "轻易", "17274": "松绑", "6214": "闪耀", "13176": "竹林", "15587": "鄂尔多斯", "6215": "雪铁龙", "7116": "无语", "14765": "面具", "6216": "露", "6221": "80万", "15072": "多方", "6222": "Angelababy", "8973": "R", "6223": "Faker", "10798": "震后", "12725": "雅马哈", "6225": "PS", "14182": "出力", "6226": "qq", "6227": "上当", "6232": "五常", "13647": "尖子", "7556": "公立", "6233": "交付", "8724": "Plus", "6234": "产后", "6795": "打通", "6236": "人性", "6240": "会晤", "6242": "修车", "9029": "外泄", "6243": "候选人", "8303": "加班", "6245": "全职", "9233": "T恤", "17253": "有利于", "6246": "军营", "6247": "农", "6249": "刘国正", "7227": "围", "14986": "凯旋", "6616": "功效", "6250": "到位", "9653": "执法", "6251": "剑指", "6252": "功勋", "6255": "十亿", "16295": "狗肉", "6257": "吴京", "6261": "国家级", "13747": "方块", "7235": "大于", "14584": "竣工", "6262": "坐垫", "12085": "盘面", "7121": "本来", "6263": "填报", "6264": "大棚", "17482": "细腻", "6265": "大海", "6266": "大疆", "6267": "大约", "13258": "身世", "6272": "定居", "6273": "小花", "13468": "保卫", "10520": "古韵", "6274": "巴铁", "6276": "开设", "6278": "当地人", "6279": "必然", "6281": "惊险", "6283": "拦", "7099": "懒人", "6285": "挑衅", "6286": "排放", "6566": "绯闻", "10950": "嘉年华", "6289": "摆脱", "6291": "收留", "14542": "电竞圈", "6292": "改款", "17090": "巴霍巴利", "6293": "施肥", "11641": "自处", "6294": "暂", "6296": "本事", "7396": "商讨", "6298": "枝头", "6521": "当中", "11852": "卡萨", "6299": "核动力", "6300": "母猪", "17137": "总和", "11710": "阿萨德", "6303": "河南省", "6305": "深意", "15080": "天团", "6306": "清单", "6307": "清朝", "7951": "室内", "6854": "逼近", "6308": "渣男", "9462": "解套", "6309": "演习", "15322": "水印", "17590": "评论区", "6310": "献礼", "6853": "透明", "6312": "电力", "9899": "孵化", "6317": "终结者", "6318": "美到", "16465": "调动", "11379": "喜好", "15915": "反驳", "6320": "航天", "6323": "街道", "6324": "试", "6327": "赐", "6329": "输入", "6331": "迎接", "10873": "人机", "6333": "适配", "16035": "小伙伴们", "6334": "都市", "7921": "制作人", "6587": "高科技", "10506": "动图", "6335": "酷", "6337": "12分", "14921": "二流", "7780": "影片", "10323": "燃料", "6338": "15日", "6346": "I", "6347": "RPG", "10553": "威武", "6350": "下局", "8411": "珍珠", "6494": "名师", "6351": "不可思议", "6352": "中小学生", "6354": "为首", "6355": "书法家", "8284": "亲生", "6356": "亮眼", "14070": "Azure", "6358": "优先", "6360": "作品展", "6361": "佩奇", "16748": "个子", "14656": "装甲车", "7590": "完工", "6363": "依赖", "6364": "侵权", "6365": "光明", "11534": "更多", "6367": "关税", "6369": "加装", "7464": "渤海", "6741": "串", "6373": "命中率", "14638": "葱", "6374": "品", "6375": "圣保罗", "6379": "境界", "6390": "恐龙", "7190": "上将", "6391": "患癌", "6392": "悲剧", "9401": "爆胎", "7450": "星光", "6395": "拉莫斯", "6397": "推手", "12871": "军旅", "6404": "毁灭", "6405": "比不上", "6409": "汉语", "15989": "失声", "8021": "炸裂", "8009": "注重", "9011": "十五万", "7795": "操盘手", "6410": "海底", "6411": "消音器", "6412": "淄博", "6414": "深渊", "6415": "炒作", "6417": "盛宴", "6419": "盼", "6420": "研究院", "10863": "之类", "17283": "核发", "9434": "紫光", "9783": "防弹", "6421": "碰撞", "6427": "红灯", "6428": "纸", "15671": "2010年", "8176": "换上", "8174": "抢筹", "11575": "爱不释手", "6431": "自动化", "6433": "苏炳添", "16004": "好找", "6434": "蓝天", "6435": "解密", "13131": "牧羊人", "6442": "赐句", "17290": "榴弹", "6444": "车贷", "15894": "包工头", "12296": "兔", "6446": "连败", "11632": "老字号", "6447": "途昂", "12827": "乘用车", "6450": "霸王", "6454": "马伊琍", "7298": "礼包", "6457": "鲁班", "8030": "琴声", "6458": "鲜花", "6462": "20亿", "7295": "眼里", "12638": "老年", "6464": "4亿", "6465": "98K", "15207": "抽筋", "6466": "9月", "6467": "H6", "16920": "变大", "6468": "R15", "9173": "负优化", "6471": "一心", "7937": "国力", "7633": "枇杷", "11259": "618", "6472": "七大", "12211": "静花月影", "6474": "乐福", "11788": "为此", "6611": "内战", "6475": "乒联", "6476": "乔治", "6477": "享", "11032": "战地", "7538": "主打", "10830": "7岁", "6482": "冠军赛", "6484": "勿", "11194": "车队", "7593": "客战", "6485": "化妆", "6489": "厂长", "7435": "招待", "6497": "命令", "13020": "抓到", "6498": "坦言", "14471": "死法", "16530": "避让", "6499": "垄断", "6503": "大多", "14673": "贫", "9630": "巧", "7224": "哭笑不得", "6504": "大街", "6505": "奇兵", "13839": "白云", "6511": "工商", "6513": "市长", "14508": "激增", "6517": "年限", "6523": "愚蠢", "6524": "感慨", "6525": "成吉思汗", "6526": "或是", "6527": "扇", "6529": "扫货", "6530": "拉黑", "6534": "操控", "6536": "收视率", "13322": "风向", "16317": "疑问", "6537": "文科", "6539": "新式", "6540": "方向盘", "6544": "本金", "12637": "老奶奶", "6545": "架构", "6546": "查看", "8537": "卫国", "15056": "埋伏", "8457": "赔率", "17189": "拼图", "6547": "毒", "8773": "口径", "6548": "汽修厂", "6550": "清子", "7480": "细思", "16195": "普法", "6553": "烟", "13592": "地质", "7475": "福祸", "8829": "放进", "14518": "爱粉", "6556": "理念", "12724": "雄", "9729": "笔墨", "7158": "董", "9628": "岸边", "6557": "生气", "6559": "白银", "6561": "秒钟", "6562": "站队", "8525": "关之琳", "13248": "贴上", "6563": "箱", "12222": "驻马店市", "15015": "卷入", "6565": "绝平", "6570": "胡尔克", "12767": "1号", "17435": "礼盒", "9035": "大驱", "13536": "华晨宇", "6574": "觉醒", "11668": "说谎", "6575": "赛道", "6576": "足够", "6577": "运输", "6580": "金属", "6582": "镜", "6586": "频道", "6588": "黑暗", "10265": "撞上", "8426": "窗", "11753": "Alexa", "6589": "龙虎榜", "6592": "50年", "9672": "无人区", "6594": "95", "6596": "MLXG", "15463": "肤", "6597": "TFBOYS", "13706": "批次", "6604": "书写", "7744": "单方面", "13141": "瑰宝", "6605": "人为", "6606": "借给", "14263": "多伦多", "6610": "其它", "6612": "内测", "6613": "几万", "6617": "动情", "7233": "墨镜", "6618": "包围", "12834": "五千万", "14939": "传授", "8645": "立", "6752": "公然", "11249": "03", "6619": "卡戴珊", "10761": "车速", "14175": "内蒙古人", "6623": "叫做", "6625": "吊打", "6626": "喜剧", "6627": "喝酒", "6628": "回购", "6629": "围棋", "6630": "圆", "6633": "大作", "6634": "大方", "7491": "认怂", "6640": "嫁接", "6641": "学到", "6644": "弹劾", "10466": "为什会", "10895": "凉爽", "6645": "彩票", "8862": "燕子", "6653": "执意", "6655": "探秘", "10285": "梁山", "7930": "反复", "15574": "连环", "6656": "播", "6658": "放出", "6661": "无视", "14136": "从天而降", "6662": "智控", "6663": "暗藏", "9195": "键盘", "6665": "杂志", "14890": "上海人", "6666": "柏林", "6670": "没法", "6672": "活跃", "7956": "尸体", "6677": "灾难", "12757": "黑节", "13108": "混动版", "11283": "三军", "6679": "物品", "7425": "悲情牌", "6681": "王祖贤", "6683": "电视台", "6684": "真题", "17533": "花朵", "6687": "组装", "12342": "古风", "6690": "绿地", "6691": "缴纳", "6692": "老詹", "6693": "考验", "6697": "自己人", "7990": "昂科威", "6698": "花式", "6703": "言", "15042": "哭戏", "7933": "后院", "6704": "评为", "6993": "英朗", "10979": "定向", "6705": "财政", "7310": "菏泽", "6709": "转发", "6845": "蔡依林", "6711": "边界", "12777": "78", "14363": "房管局", "6712": "近日", "6714": "遗址", "6715": "配件", "15248": "放送", "6717": "闲置", "6721": "音箱", "10219": "学期", "11347": "劳斯莱斯库", "6722": "高于", "6725": "15亿", "8148": "子文", "16183": "旅行版", "6726": "2-2", "7645": "涂", "6727": "3系", "8776": "合璧", "6729": "6s", "9686": "条约", "6733": "BAT", "6735": "steam", "6736": "|", "6737": "不但", "11444": "就读", "14365": "才子辈出", "6739": "丢人", "8503": "上半身", "6740": "丧失", "15121": "富人区", "6743": "乐", "7393": "吴宣仪", "6745": "五百", "6746": "亚太", "6755": "再说", "9311": "外套", "6756": "击杀", "12116": "细则", "6757": "刘嘉玲", "6758": "功力", "11000": "庞氏", "7077": "多么", "11915": "峰", "6760": "区分", "6761": "华山", "6762": "卸载", "8162": "弱点", "6763": "厨房", "7175": "音速", "16669": "580", "6765": "合唱", "12423": "尽量", "14836": "Competition", "6768": "咱", "12344": "可信度", "8171": "所以", "9720": "石榴", "6772": "回头", "6774": "回调", "9876": "周四", "13741": "教案", "14985": "几月", "6778": "复仇", "6779": "大帝", "9047": "实况", "6781": "官", "14409": "撤军", "6784": "少见", "6787": "平凡", "15630": "青春版", "7394": "周期", "6789": "彩虹", "16692": "NO.1", "6792": "情商", "17475": "红杏多", "6793": "想起", "6796": "扮演", "6799": "挽救", "7722": "下岗", "15111": "实盘", "6800": "提名", "8759": "凑", "6801": "援助", "9327": "少年团", "6802": "搅动", "6804": "撞衫", "13212": "花期", "6809": "未婚", "6811": "本地人", "10571": "展会", "6812": "杀手锏", "10100": "高官", "6813": "枝", "10399": "锁屏", "6814": "梗", "6815": "楼房", "7219": "双手", "6818": "湖", "12008": "未经", "6820": "火箭弹", "6821": "火车站", "6825": "田径", "8075": "餐桌", "7840": "生子", "6826": "田间", "6829": "盒子", "6830": "祸", "6831": "穿帮", "11891": "大礼", "6836": "编队", "6837": "老牌", "6839": "职校", "6840": "胡德", "15440": "练兵", "6842": "英媒", "17632": "迈克尔杰克逊", "9842": "写出", "6847": "解散", "6848": "语", "16679": "ATM机", "6849": "贝克汉姆", "6981": "登上", "6850": "走过", "6851": "路过", "15708": "B2B", "11069": "替补席", "6855": "重塑", "15035": "周鸿祎", "11693": "郊区", "6858": "钟丽缇", "8854": "泳池", "10711": "稳健", "6859": "银川", "6861": "防范", "9386": "法则", "13480": "元首", "11054": "摸到", "7545": "以军", "6864": "马路", "6865": "高贵", "6867": "鼻子", "7030": "7亿", "6872": "GS4", "14157": "倒伏", "7755": "呼伦贝尔", "8193": "月球", "6877": "一番", "6879": "万能", "10291": "死侍", "6881": "上都", "6882": "之内", "6887": "他人", "17627": "过不去", "12870": "再造", "7621": "撕", "6888": "付款", "10236": "开张", "6896": "军迷", "14906": "中性", "15653": "鸭子", "6899": "刘恺威", "6900": "初心", "14328": "工体", "6901": "削", "6902": "动乱", "6905": "友好", "8037": "空地", "6906": "变动", "13057": "有爱", "17438": "神勇", "6909": "合成", "6914": "品鉴", "6918": "大厦", "12582": "玩会", "6925": "富人榜", "12389": "太上老君", "7865": "迈巴赫", "14955": "倘", "6927": "小狗", "10574": "师姐", "6929": "层次", "10734": "荒岛", "13517": "前置", "14737": "销声匿迹", "6937": "徒弟", "6940": "悲惨", "6941": "惨重", "6942": "懂得", "6943": "战报", "6945": "扒", "6946": "批文", "11131": "稳居", "12005": "有福", "15602": "锁骨", "6949": "排球", "8621": "液体", "12264": "上千万", "6951": "接连", "6953": "插电", "6954": "支招", "10174": "医学院", "15662": "1.9", "6959": "景", "9189": "途径", "6960": "智联", "15799": "人缘", "6962": "服饰", "6963": "杜特尔特", "6964": "杨紫", "7925": "半导体", "9193": "重金", "16852": "养家", "16644": "178", "6965": "极品", "14571": "私服", "6968": "检验", "7887": "200多", "6969": "武功", "15657": "07年", "13588": "国防部长", "6972": "海岸", "10577": "常常", "6973": "添夏", "17666": "野兽", "6974": "灰尘", "12384": "大清", "6975": "熄火", "6976": "爬", "6978": "牢记", "8641": "码", "7670": "自豪", "9897": "姐夫", "6979": "狠话", "6982": "白条", "12988": "开唱", "7025": "30%", "14259": "增量", "6983": "相爱", "6989": "老玩家", "15030": "同龄人", "6990": "胡", "13299": "防骗", "6992": "花木兰", "6994": "获利", "13495": "关注度", "6996": "董事会", "6997": "被捕", "16599": "首脑", "13030": "拷问", "6998": "规避", "6999": "试训", "16287": "爬上", "7000": "贴膜", "7003": "软", "7004": "辅导", "8167": "恩师", "10258": "捍卫", "10640": "枪口", "7005": "辽宁队", "7006": "连衣裙", "7486": "美艳", "7008": "酷似", "13812": "消亡", "7009": "金色", "7011": "门槛", "7265": "旗袍", "7012": "隔空", "14022": "风韵", "7016": "靓丽", "7021": "高龄", "10942": "告急", "7026": "400万", "7027": "4AM", "14975": "关谷", "7029": "70万", "8061": "贴心", "7031": "Win10", "7034": "上位", "7614": "戈兰", "12492": "攻破", "7035": "上周", "15693": "5.7", "7040": "东西部", "13039": "改灯", "7042": "之中", "8515": "他俩", "7044": "云计算", "9754": "赛马", "8631": "玉宁", "7046": "仇", "7541": "乐趣", "7285": "献给", "7049": "供应链", "15230": "推向", "7050": "信息化", "8070": "陈乔恩", "9882": "坐姿", "10568": "尾声", "7052": "入境", "15084": "夹带", "7053": "公敌", "7366": "以此", "7054": "农作物", "8694": "邻国", "14087": "ins", "7918": "出境", "8789": "塞", "7057": "出货量", "9425": "秋风", "7058": "刀郎", "7059": "分辨", "7061": "前夕", "10677": "特级", "7062": "剧本", "7065": "南亚", "7068": "发电", "15617": "陈凯歌", "8143": "天生", "7069": "叶", "8826": "支持率", "7072": "启幕", "14721": "配色", "7076": "墙", "10980": "实业", "7079": "孕妇", "13427": "东岭松", "7080": "安全性", "7081": "官兵", "7082": "害", "9146": "秘境", "13870": "窄", "7085": "小伙伴", "7087": "展览会", "11861": "变样", "7094": "必读", "7846": "知晓", "8046": "能量", "7095": "快手", "10264": "接力", "7097": "性侵", "14902": "丝血", "8670": "脖子", "17534": "花灯", "7101": "房租", "7102": "手指", "7105": "挡子弹", "7106": "换帅", "7107": "排兵", "8180": "撒贝宁", "7176": "顶薪", "10437": "2.5万", "7108": "探", "7112": "新片", "7115": "无解", "7118": "日期", "16578": "青训", "7120": "本地", "8041": "纸条", "13463": "何必", "14121": "买进", "7122": "梁", "10425": "风筝", "7123": "水上", "9044": "安", "7124": "沈", "13414": "上传", "9722": "神装", "12426": "山山", "7125": "沙袋", "7126": "没收", "7127": "洗车", "15074": "大和号", "7129": "海尔", "8049": "自爆", "15466": "自在", "7542": "二维码", "7132": "爱好者", "13735": "收复", "14494": "消", "7139": "画风", "12254": "VT", "7140": "畔", "16695": "Rekkles", "7142": "皇室", "7148": "终生", "7151": "罪人", "13353": "120万", "7152": "美瑞", "15779": "中线", "7159": "蒜薹", "7160": "西决赛", "17136": "总共", "16445": "袁立", "7167": "连发", "7170": "邹", "7172": "重现", "7174": "阻挡", "7178": "高拉特", "7179": "黄紫昌", "10490": "全员", "13786": "正品", "7181": "1-3", "9409": "用法", "7183": "65", "7185": "C", "10958": "在手", "7187": "S", "7195": "也门", "7200": "人脸", "7201": "代步", "7204": "低位", "17643": "追到", "7284": "烧钱", "7207": "入摩", "7208": "全方位", "9948": "押金", "7211": "制药", "7213": "化肥", "7214": "南阳", "13221": "莱西", "7978": "打入", "7215": "占比", "17321": "沙巴", "7216": "占领", "7217": "卷土重来", "7223": "向好", "7226": "园林", "7229": "图解", "7230": "坐拥", "7231": "塔克", "11256": "280", "7234": "多国", "10968": "天山", "7236": "大脑", "7238": "奇特", "13605": "大鱼", "7239": "奇观", "7240": "套餐", "16271": "淳朴", "7241": "奥迪Q7", "7243": "安迪", "7245": "宠物", "7247": "尺寸", "7249": "工匠", "7253": "徐静蕾", "15028": "吃透", "7254": "想见", "8422": "硅谷", "7255": "批发", "13088": "武藏", "7259": "拳击", "7262": "摔倒", "9605": "天一", "7264": "旅馆", "7270": "晋升", "7272": "期限", "7273": "机动车", "7274": "果", "7278": "洋房", "14487": "泥潭", "11411": "姑姑", "7280": "渐", "7281": "滚", "14704": "迫在眉睫", "17198": "掉落", "7282": "炫富", "11639": "肾", "10035": "老太太", "7823": "流产", "7286": "现任", "14362": "房兵", "7288": "球球", "9564": "击垮", "7293": "留队", "13910": "荡", "7294": "疏散", "7297": "碰瓷", "15306": "欧陆", "15536": "赔本", "15956": "回避", "7303": "管用", "10306": "浙大", "7308": "节日", "7312": "表明", "7313": "评", "16250": "法西斯", "8184": "文旅", "7314": "赏花", "8810": "崔", "13324": "飙涨", "7318": "跨", "7321": "车库", "7329": "雅芝", "7330": "露面", "8981": "丝绸之路", "7334": "首席", "7336": "首映", "14529": "王迪", "11533": "智跑", "11073": "机动", "7337": "马思纯", "7340": "鸭", "7341": "19日", "7343": "73", "7345": "A级", "7349": "X5", "13740": "教头", "12689": "趣事", "7351": "三生三世", "7353": "下跪", "17606": "赤峰", "8013": "深受", "11294": "丧生", "10811": "验收", "12648": "航行", "15792": "事务", "7354": "不久", "7358": "中年", "12744": "驻马店", "15724": "MSI正赛", "7359": "义乌", "11152": "缸", "7360": "二十", "9453": "芝麻", "15961": "土特产", "7361": "五月份", "15959": "国标", "7365": "人大", "7372": "借鉴", "7374": "兑现", "7375": "养猪人", "7377": "冒", "17454": "空挡", "7382": "升空", "12816": "东盟", "12991": "张绍刚", "13206": "腰带", "7398": "土鸡", "9226": "86", "7401": "场地", "7407": "安慰", "7409": "官员", "7413": "小弟", "9489": "钟馗", "7745": "压哨", "17312": "水城", "9598": "备", "13614": "奶粉", "7414": "展望", "7416": "巨无霸", "7417": "帅哥", "10043": "药胜", "9411": "疲惫不堪", "7418": "干扰", "7424": "悲情", "14983": "冻害", "7427": "战火", "7430": "承担", "7586": "太极", "15048": "国兵", "7431": "折叠", "7432": "抵押", "14869": "pro", "10369": "诀窍", "12121": "绿洲", "8928": "追责", "13018": "扶摇", "17654": "通牒", "7433": "抹", "9171": "评审", "7439": "接待", "7442": "揭牌", "13860": "离境", "7443": "搬", "7444": "撩", "13784": "欧足联", "8112": "刷屏", "7500": "采儿", "7451": "杀人", "8401": "海峡", "7452": "杜鹃", "13821": "热带", "13481": "充电桩", "7455": "框架", "7456": "模型", "7787": "打团", "7458": "气息", "7460": "水晶", "7462": "河北省", "7465": "滑", "13323": "风电", "7466": "照样", "13209": "自愿", "7468": "犹豫", "7469": "瓶", "7470": "监测", "9406": "王国", "7471": "盖房", "7476": "第5", "7477": "精", "8362": "手势", "7478": "索尼", "7479": "紧", "7481": "终端", "7482": "结盟", "7483": "缴", "7485": "网售", "7494": "赶出", "13966": "追剧", "7495": "跃", "16061": "平心而论", "7497": "车险", "7502": "金服", "7504": "震惊", "14315": "富民", "14775": "频现", "15221": "掉价", "7505": "霸占", "7506": "领头羊", "7507": "饿死", "13161": "砍杀", "7509": "马哈蒂尔", "7513": "高楼", "10019": "社团", "7514": "高潮", "7515": "鸦鹊", "14326": "崇拜", "17743": "鲜生", "13902": "脱俗", "7516": "1.2亿", "7517": "100亿", "7521": "530", "9673": "无知", "7523": "5月底", "7775": "巡礼", "7527": "F22", "7529": "MBA", "13886": "绿卡", "14516": "爆破", "10538": "地缘", "7530": "U23", "7531": "下线", "11015": "心上", "7536": "中药材", "9239": "东游", "15521": "诗魂", "8077": "黄海", "7537": "临夏", "13695": "战俘", "7546": "余地", "11775": "三分球", "7550": "保安", "7554": "全网", "13622": "子孙", "7558": "军费", "8634": "瑜伽", "7559": "减灾", "11276": "X7", "7560": "凭借", "17661": "配车", "12705": "通报", "7561": "凶手", "7562": "出山", "10467": "乒乓球队", "7931": "口语", "7567": "刮", "15396": "睿骋", "7570": "华晨", "14329": "工作量", "7571": "发电机", "8944": "雷凌", "7572": "发育", "7573": "口袋", "7574": "台北", "13889": "美文", "7575": "吓坏", "7578": "唯有", "7727": "举", "7584": "外长", "15663": "10多", "8122": "博", "7588": "娘娘", "7591": "官图", "7654": "生死", "7595": "对接", "8659": "老罗", "7759": "团", "7598": "巨型", "9667": "教版", "7599": "巴沙尔", "7601": "常规", "7606": "开除", "7616": "扑", "11238": "骚扰", "9497": "预售价", "7617": "托管", "8154": "射程", "7622": "放松", "7623": "教育局", "7626": "日语", "12670": "裁员", "7627": "早上", "10272": "旭旭", "7631": "更改", "7634": "果园", "7635": "柑橘", "7637": "模样", "16339": "知乎", "7639": "残疾", "7641": "汽修", "7642": "没落", "7651": "激发", "7655": "生锈", "7656": "田野", "7658": "白雾", "10521": "名人堂", "7659": "直线", "7660": "相撞", "7662": "省心", "8661": "考斯特", "7665": "约旦", "7669": "自建房", "7671": "致歉", "16475": "贪", "7679": "负责人", "9398": "烂荣", "8811": "左", "7681": "走到", "15683": "301", "8628": "犯罪", "7684": "轴距", "8705": "饭店", "7685": "辛酸", "7687": "追踪", "7688": "退休金", "7690": "逃犯", "7692": "选出", "10941": "吸气", "7693": "透视", "12596": "盗走", "7696": "陈冠希", "8439": "耗资", "7698": "院子", "7700": "集训", "7702": "首播", "7705": "黑鲨", "7708": "50亿", "7710": "8.9", "7763": "大V", "15481": "荒山", "7711": "93", "16377": "紧凑", "7712": "AR", "9087": "新媒体", "9784": "阿拉伯", "7713": "B2", "13780": "椰子", "14546": "番禺", "7718": "k", "12083": "百鸟朝凤", "7719": "一时", "7723": "下手", "7726": "中毒", "7730": "乱象", "7731": "交换", "13998": "陆战队", "14001": "院线", "16069": "开刀", "7735": "入市", "7736": "全攻略", "16204": "李自成", "11619": "精心", "15812": "伤疤", "7738": "冰", "8668": "胜过", "15619": "陌陌", "7739": "准确", "10695": "皮尔斯", "7742": "列入", "10413": "青铜", "7748": "同框", "7750": "名额", "11233": "食用", "14475": "水利", "7751": "后场", "14374": "技法", "7753": "周六", "7757": "商用", "10000": "牛奶", "7762": "外传", "10796": "雨季", "7764": "大美", "9073": "戈登", "9642": "思", "7766": "头盔", "17449": "秘书长", "7773": "崩盘", "13456": "代表作", "11955": "才子", "7776": "差评", "13475": "假象", "7777": "并购", "12826": "乌龟", "7781": "怂", "15098": "嫁妆", "15524": "谁与争锋", "7783": "惠民", "7785": "慧慧", "7786": "懒", "12774": "5008", "16109": "意杯", "7788": "招致", "7790": "挑战赛", "7792": "接收", "7793": "插手", "7794": "操盘", "7799": "旅途", "15406": "秀丽", "7803": "更衣室", "7807": "杀器", "7812": "梁朝伟", "7816": "毕业季", "7818": "民营", "7819": "氢弹", "7821": "泸沽湖", "7822": "洗牌", "7824": "浇水", "11616": "米勒", "7825": "浮出", "17048": "宫女", "9030": "大单", "7826": "消灭", "7827": "深深", "7828": "温度", "7829": "演戏", "11242": "高考生", "7830": "火花", "16672": "70多", "7831": "热潮", "7836": "牛逼", "7837": "特工", "14357": "总值", "7838": "猜想", "11112": "病虫害", "7841": "留在", "7842": "略", "7844": "盲目", "7845": "眼泪", "15740": "boss", "7847": "砖", "15189": "或者说", "7850": "离世", "9560": "冰雪", "15389": "盘整", "7880": "黄花", "7852": "端", "13651": "山羊", "7854": "缓解", "9200": "集成", "15652": "鸡毛", "7856": "自如", "7858": "规矩", "7860": "评级", "9314": "大雷", "15131": "少数", "9108": "法治", "13692": "成品油", "7864": "跟随", "9141": "石川", "7866": "运20", "13424": "不知所措", "7868": "还清", "7869": "还贷", "7872": "郭晶晶", "15077": "大树", "15744": "mini", "7874": "钢铁侠", "7876": "问鼎", "8145": "奚梦瑶", "7877": "霸屏", "11594": "盾安", "8181": "改编", "7878": "风俗", "7879": "驱", "8195": "李诞", "7881": "黎明", "11452": "巴士", "7883": "1.5亿", "17004": "大龄", "15001": "加推", "7889": "35万", "7892": "5A", "7893": "60亿", "7895": "CPI", "7899": "不良", "10792": "闯入", "16024": "宗庆后", "7901": "东海", "9510": "默克尔", "11675": "跪地", "7903": "五五", "7907": "传递", "7910": "保护费", "9266": "八成", "7911": "偏爱", "7913": "兄妹", "17555": "蒜你狠", "7914": "免签", "12520": "枪杀", "9929": "当做", "7915": "全日制", "7916": "冷战", "7917": "凯特", "15017": "原料", "7922": "刻苦", "7924": "北漂", "16497": "转手", "12753": "鲨鱼", "7928": "南部", "7932": "古典", "9569": "剧透", "7934": "吞并", "7938": "夏令营", "9229": "A轮", "7943": "套现", "9671": "新盘", "15237": "摩托罗拉", "16772": "二十多", "8797": "太太", "7944": "女郎", "7957": "履行", "7958": "巴厘岛", "7959": "帕托", "7960": "席", "12601": "真人版", "13980": "遣返", "7962": "开发区", "11247": "齐全", "7963": "开售", "8765": "半程", "8138": "境外", "7965": "弹幕", "11703": "铝", "7966": "强军", "10001": "特大", "7967": "影", "7969": "意境", "10451": "Mlxg", "7973": "成都市", "7974": "戒指", "10812": "高估", "7977": "手续费", "7983": "拿来", "13668": "开走", "7986": "政委", "7987": "教室", "11111": "留洋", "7988": "旅游节", "7989": "日日", "8891": "组队", "9046": "定金", "7993": "智能化", "8082": "9号", "13776": "核查", "7996": "月工资", "11310": "传球", "11889": "大放异彩", "7997": "杂草", "8006": "江苏省", "14691": "轮官", "8007": "沈梦辰", "8008": "沟通", "13990": "铲球", "8015": "添加", "8017": "渐渐", "14029": "驻华", "8022": "然而", "8023": "爱因斯坦", "10208": "埃神", "10114": "3500", "8024": "牛仔", "8027": "狂魔", "9328": "尤其", "8028": "率领", "12746": "骨干", "8029": "玩王者", "8034": "看球", "14296": "存进", "8039": "繁荣", "10302": "洱海", "14108": "中信", "8043": "绵阳", "8047": "脱离", "8048": "脱贫致富", "12015": "枪击", "17249": "暗语", "8050": "航班", "8052": "花卉", "13023": "抵御", "13851": "瞎", "8053": "莫斯科", "8056": "表情包", "8060": "败给", "8062": "赌", "8064": "进场", "8069": "闭幕式", "15533": "购置税", "8073": "韩媒", "14114": "主张", "8078": "黑名单", "8079": "4A级", "16723": "一百多", "8081": "95后", "8085": "FF", "8087": "LED", "8089": "不动产", "15970": "墨子", "8091": "专车", "8092": "丹东", "8093": "主裁", "12196": "门户", "8095": "交大", "8096": "亲妈", "9440": "网页", "8097": "价钱", "8099": "体操", "8102": "俄国", "13641": "小店", "8111": "分割", "14280": "天池", "16363": "站稳", "12464": "扮", "8114": "加长", "8117": "十一", "8118": "十几万", "8121": "单兵", "12633": "罗斯", "12927": "境终", "8123": "反击战", "8124": "发抖", "9847": "出兵", "8126": "变天", "8127": "可期", "8128": "合伙人", "8129": "名句", "8130": "哈", "13337": "鳄鱼", "8131": "啥样", "8132": "善良", "11763": "RAV4", "11842": "加紧", "8135": "地价", "14714": "逝", "8136": "型", "8633": "珍惜", "8137": "堂", "11571": "灵气", "8140": "增多", "8141": "多达", "11870": "哪吒", "8144": "太后", "8147": "妙笔生", "8150": "定价", "8153": "宿迁", "14009": "霍元甲", "8164": "快报", "10720": "罪魁祸首", "12655": "荣放", "8165": "总监", "8168": "情人", "13512": "分发", "8172": "打飞", "8360": "想象力", "8173": "抖", "11150": "缩水", "8178": "揭", "8183": "散打", "8187": "时间表", "8190": "晚会", "17139": "恐袭", "8192": "曹操", "8196": "林更新", "8201": "毫不", "8203": "江淮", "8205": "流通", "8207": "浮华", "8208": "海关", "12650": "苦苦", "8213": "牛股", "8215": "独一无二", "8216": "现代化", "13154": "相片", "8218": "病害", "14172": "其后", "8219": "痛批", "8220": "痛点", "10647": "欢呼", "8222": "相见恨晚", "9151": "缤智", "13856": "磋商", "8224": "离奇", "9640": "微微", "14603": "缠绕", "8225": "突出", "12251": "Python", "8226": "笑喷", "8228": "结算", "8229": "绿水", "8230": "缺少", "8780": "呼吸", "17675": "钟情", "8231": "缺陷", "8232": "美宇", "8568": "巴里赫恩", "8235": "脾气", "10759": "跑酷", "13266": "辩论", "8236": "良性", "12215": "题型", "14681": "走起", "8241": "药材", "10139": "中小", "8243": "要么", "8244": "要闻", "8245": "认知", "8246": "记载", "8247": "讲堂", "8248": "诚", "8251": "转为", "8252": "转账", "13305": "雕像", "8254": "退市", "17579": "观景", "13652": "岭南", "8255": "逐步", "13802": "洒", "8257": "那年", "8258": "配套", "8259": "醒来", "8260": "长寿", "8261": "防晒", "8262": "陆", "8263": "集结", "8264": "雾", "11044": "捏", "8265": "露营", "8266": "高温", "8268": "1/8", "8270": "2022年", "8271": "20多万", "9465": "论语", "8272": "8000万", "12478": "掌门", "8273": "First", "8274": "GL", "8277": "丈母娘", "8278": "上行", "8279": "不和", "8283": "亚泰", "8286": "伟解", "8287": "位于", "8288": "体坛", "9124": "物种", "8290": "保住", "8291": "信托", "15064": "增大", "10177": "单人", "14224": "叹为观止", "8292": "假装", "8295": "光头", "16807": "伴娘", "8297": "冷兵器", "8300": "前10", "8301": "前程", "9501": "频发", "8302": "办学", "13486": "全集", "8305": "南山", "9962": "文科生", "8306": "南通", "8307": "友谊", "8308": "发威", "15446": "缘由", "12732": "风水", "8310": "变形", "8312": "另类", "8313": "叫停", "17408": "百态", "8314": "叶利钦", "14646": "蚌埠", "8315": "名义", "8316": "吕", "8317": "启辰", "8318": "告白", "13107": "深陷", "8319": "周润发", "8320": "咋办", "11269": "MH370", "11909": "容颜", "17680": "锁仓", "8321": "和尚", "8322": "咬", "8323": "园区", "8324": "国米", "16845": "八百多万", "8325": "国门", "8328": "土壤", "8329": "在外", "8330": "塔图姆", "13080": "桃花三二", "8331": "复旦", "8333": "外号", "9063": "废墟", "8334": "大自然", "9176": "走近", "8335": "天命杯", "9346": "惊艳到", "8337": "好心", "8338": "媒", "8340": "孝元", "8342": "宝石", "13098": "河流", "8343": "客厅", "8344": "宣言", "8351": "币", "10176": "午后", "15274": "曹雪芹", "8352": "庞大", "11470": "影业", "8355": "彭于晏", "8356": "征集", "8357": "得罪", "16983": "复刻", "8358": "德云社", "12808": "七号", "8364": "打动", "13257": "踏", "8365": "打折", "12359": "园内", "8369": "提起", "8370": "插秧", "8373": "收益率", "8374": "救灾", "8376": "斯威", "8378": "无尽", "13314": "霍姆斯北", "8479": "高端局", "8379": "早期", "8381": "昨晚", "9738": "荔枝", "8382": "显得", "8383": "普洱茶", "8384": "暴雨", "13306": "雕塑", "8385": "最为", "8386": "未必", "14292": "如期", "8387": "枣树", "9109": "泪流满面", "15981": "大衣哥", "8388": "校", "8389": "校友", "8390": "梅", "8391": "梅艳芳", "13447": "于谦", "8392": "正当时", "14847": "OK", "8393": "比尔盖茨", "10336": "看呆", "8396": "沃尔玛", "13260": "车灯", "15609": "阔", "8397": "泰州", "8398": "洗盘", "8399": "流氓", "8402": "海战", "14799": "默哀", "8405": "滨海", "12173": "迅雷", "8406": "潮落", "10359": "虐心", "8408": "热刺", "14553": "直流", "8409": "爵迹", "8410": "猕猴桃", "8635": "用上", "8414": "甄嬛传", "8416": "生鲜", "10569": "屋顶", "8417": "男童", "8420": "看病", "8423": "秩序", "10230": "幸好", "8424": "称作", "9450": "舟", "8427": "竞", "15786": "举人", "16628": "1.2T", "8428": "粤明", "14862": "Watch", "8430": "纯电", "13352": "10分", "15928": "合格性", "16172": "政要", "8431": "维权", "8433": "缺阵", "15687": "3万多", "8434": "网剧", "9998": "炫耀", "8435": "美帝", "14424": "旷野", "8436": "老头", "8440": "耻辱", "14367": "扎根", "8441": "聚餐", "11956": "扩容", "15503": "血亏", "8442": "胜负", "8444": "般的", "8447": "营业", "8448": "行人", "8450": "补助", "8864": "片区", "8453": "讽刺", "8454": "证件", "8455": "诞辰", "13798": "沁", "8456": "课本", "9739": "荧幕", "8459": "跳舞", "8462": "连冠", "16107": "想出", "8463": "遭殃", "8466": "里程碑", "8467": "铂金", "9350": "抢房", "11472": "得主", "8468": "阵营", "9843": "写好", "8469": "陌生", "8470": "限售", "10310": "深层次", "8471": "雷神", "14371": "托运", "8472": "靠近", "8989": "仙子", "8473": "风头", "8474": "首场", "8475": "马可波罗", "15113": "客户端", "8476": "马鞍山", "14984": "凌", "8477": "驾", "11155": "美诚", "8478": "验证", "8480": "高速路", "8481": "12号", "8482": "17日", "8484": "28万", "11299": "乐器", "13310": "零部件", "11005": "开跑", "8485": "30日", "8487": "365", "11373": "吼", "8488": "5.6", "8489": "512", "8490": "59", "8492": "AK47", "8494": "F-22", "8495": "GS", "8498": "World", "8501": "三峡", "8505": "不难", "8506": "中路", "8507": "主任", "12649": "花鸟画", "9003": "冲锋", "13554": "古道", "8509": "乔峰", "8510": "乡镇", "8511": "买下", "8512": "争相", "9090": "昙花一现", "12127": "翻唱", "8513": "交流会", "15288": "极地", "8514": "产业园", "11881": "外界", "15972": "外人", "8516": "企图", "8517": "众筹", "8518": "传出", "8519": "伤心", "8522": "倾城", "8523": "入局", "8526": "凯越", "8527": "凸显", "8528": "出事", "13882": "绘", "16307": "理智", "8530": "刘晓庆", "8531": "初中生", "13232": "规模化", "15682": "3%", "8534": "升温", "8535": "南非", "8536": "卡帅", "9139": "相继", "12940": "头部", "8538": "卫生", "17529": "节约", "8539": "厚", "8540": "原始", "15684": "3100", "8542": "叔叔", "15273": "暴怒", "10021": "童星", "8543": "口罩", "8739": "九州", "12898": "发微", "8545": "后妈", "15650": "鳅", "8546": "味", "8548": "围绕", "8549": "国务卿", "8550": "地址", "8552": "大峡谷", "11300": "乐坛", "8553": "大有", "8554": "奥迪A6", "9482": "这笔", "8555": "如同", "8556": "威廉姆斯", "8557": "娜扎", "8559": "安检", "14051": "2018一", "8560": "实时", "14384": "抵近", "8564": "局长", "8565": "巡演", "8567": "巨资", "8569": "布朗", "16759": "久久", "8572": "年年", "9944": "打散", "15584": "逗笑", "8574": "引导", "15397": "短鳗", "8575": "弘扬", "10857": "临", "8576": "张曼玉", "8577": "弹", "9806": "VIVO", "12372": "增设", "8579": "微弱", "8580": "心痛", "12639": "老翁", "8583": "悬", "8585": "惧", "10698": "直达", "12402": "妥妥", "8587": "手榴弹", "8588": "扶持", "8589": "护士节", "10681": "猖狂", "10539": "地铁口", "8591": "提分", "13595": "坐力", "8593": "救赎", "8594": "敦煌", "8596": "整车", "8597": "文人", "8600": "时空", "8601": "智力", "8603": "暴打", "8605": "来头", "8608": "棋牌", "12852": "倒地", "8609": "楼层", "8611": "正规", "8612": "残忍", "16626": "1.0", "8613": "段子", "8615": "汇率", "8616": "法宝", "8618": "流传", "13900": "能人", "8619": "海拔", "8622": "激怒", "17240": "早日", "8625": "热播", "8626": "熬夜", "8629": "狐狸", "12544": "汗", "8630": "猎豹", "8632": "环", "11004": "开考", "8638": "相恋", "8639": "眼前", "8643": "私立", "8644": "穗", "8646": "第二日", "8647": "答", "8648": "精华", "8651": "纪录片", "14663": "誓", "12864": "公馆", "9776": "铭记", "8652": "绰号", "8653": "网传", "8654": "网购", "13617": "妙", "8655": "罪", "8656": "美颜", "13867": "税费", "8657": "羞辱", "12466": "抑郁", "8658": "翻车", "8660": "老鼠", "8663": "耕地", "8664": "耳光", "15437": "纯粹", "8667": "肯尼亚", "8669": "胡子", "11972": "接棒", "9577": "参军", "8672": "自有", "12872": "农家乐", "8673": "艺术品", "8675": "落伍", "8676": "落选", "8679": "襄阳", "8681": "谈谈", "8685": "超值", "8686": "路径", "8687": "车市", "16199": "暗指", "8689": "迁", "8690": "过年", "9383": "水浒", "12687": "趁机", "8691": "选购", "8692": "遇难者", "8695": "酱油", "11795": "乾坤", "12074": "甜点", "8696": "酷炫", "8697": "野心", "8698": "钢盔", "15075": "大坝", "17375": "熟练", "8699": "长腿", "11673": "超速", "13660": "平价", "8701": "雇佣", "8702": "雪崩式", "8703": "顺位", "8704": "食", "13792": "民办教师", "10802": "页面", "8707": "香肩", "8708": "高二", "8709": "高档", "13970": "逆势", "16488": "足不出户", "8710": "麻辣", "8711": "黑帮", "10073": "郑智", "8712": "110", "8713": "140", "15486": "萧亚轩", "16423": "艳遇", "9790": "难吃", "8714": "1945年", "8715": "1:3", "8716": "20日", "8720": "Baby", "8721": "Dota", "8722": "GT", "8723": "OMG", "11291": "业态", "14719": "郭士强", "8726": "uzi", "16224": "欧联", "8728": "三生", "8729": "三百", "12023": "欢乐颂", "8730": "三轮", "11981": "数亿", "8732": "下车", "8733": "不仅仅", "8734": "不得了", "16246": "沙拉木", "8736": "丢掉", "16877": "剧种", "8741": "代码", "8742": "以外", "12493": "数千万", "8743": "价比", "17149": "惊心动魄", "8744": "休斯顿", "8746": "例子", "8748": "保本", "8749": "倒霉", "8750": "做生意", "8752": "先后", "8753": "全胜", "16180": "方正", "8754": "八路军", "13028": "拜", "8756": "兴起", "8760": "出卖", "17349": "消息面", "8761": "到场", "10154": "停留", "8762": "前进", "8763": "剑网", "8766": "华东", "8767": "博瑞GE", "8768": "历任", "8769": "双向", "9132": "画画", "8771": "变脸", "8774": "口水", "8782": "唐艺昕", "8783": "唤醒", "8785": "四海", "8788": "城镇", "8790": "多种", "8791": "大乱", "11583": "画质", "8792": "大佬们", "8793": "大关", "16864": "出牌", "8795": "大桥", "16652": "3.5", "8796": "天皇", "8930": "逢", "12449": "忌讳", "8798": "好人", "10744": "解救", "11749": "835", "8799": "妲己", "8800": "学学", "13726": "揪心", "8802": "完了", "8803": "害羞", "8804": "小偷", "17723": "飞叶", "8806": "小散", "8807": "小智", "8808": "少帅", "11348": "勇", "8809": "岳父", "8813": "开撕", "8814": "张嘉译", "8815": "当众", "8817": "打RNG", "8818": "打板", "8820": "扣篮", "13865": "程咬金", "8824": "摩拜", "15658": "09年", "8830": "政权", "8831": "救援", "8834": "无人车", "10936": "名声", "8836": "智库", "8837": "曼萨诺", "12606": "硬气", "13040": "放水", "11028": "情形", "8838": "朵", "8839": "格里芬", "9315": "大马士革", "14301": "学车", "8840": "桌子", "8842": "此生", "8844": "殇", "8845": "残阳", "9260": "修图", "8846": "每亩", "16696": "S2", "8849": "油菜花", "8850": "沿线", "10290": "死亡率", "8852": "泪目", "11649": "莫名", "8853": "泰", "8855": "浓眉哥", "8859": "灰姑娘", "8861": "烧掉", "8863": "父", "14973": "关东军", "8868": "珍藏", "9856": "千里", "8870": "甲板", "10307": "海滨", "8871": "甲骨文", "8872": "留住", "8873": "留言", "8879": "票投", "15752": "一等", "16526": "通透", "8881": "禁售", "14270": "大吉大利", "8882": "种菜", "8883": "稀有", "8884": "程", "14426": "明星赛", "8887": "窗口", "8890": "线上", "8892": "绮莉", "8893": "网", "8894": "罗志祥", "13664": "并列", "17724": "飞来", "8895": "美美", "8897": "联网", "8899": "膨胀", "8900": "至极", "8903": "苏-35", "8905": "菜鸟", "8906": "薪酬", "12567": "烟雨", "8907": "虐待", "8909": "行政", "8911": "被动", "13070": "村村", "13899": "背叛", "8912": "装饰", "16356": "种田", "8915": "订", "8919": "贫瘠", "8920": "足球赛", "8921": "跌幅", "8924": "轮毂", "10710": "税率", "8925": "过剩", "8932": "那时", "16443": "血洗", "8935": "野马", "8936": "铁律", "8940": "防震", "8941": "陈数", "8943": "集合", "13117": "灵宝", "8945": "霸权", "15294": "枝繁叶茂", "8947": "音量", "8949": "颜", "8950": "驾考", "9517": "4-2", "8951": "骗人", "12343": "只好", "8953": "高盛", "8954": "龙头股", "9524": "70%", "8955": "052D", "8956": "1000亿", "11178": "警车", "9886": "备胎", "11367": "台媒", "8960": "10月", "8963": "180509", "8964": "3-1", "8966": "62", "8970": "J联赛", "8971": "MC", "15160": "建章", "12828": "买买买", "8972": "M战队", "8975": "note3", "8976": "plus", "8980": "世间", "8984": "互换", "13494": "六月份", "8985": "井", "13237": "诅咒", "8987": "什么的", "8988": "今夜", "11985": "斤两", "8992": "俊杰", "17177": "扫帚", "8993": "借贷", "8994": "兑换", "8995": "全北", "8996": "共识", "8997": "关口", "8999": "冒充", "13458": "传感器", "15985": "天眼", "9001": "军火库", "16802": "传到", "9002": "冰球", "10146": "伤车", "9006": "前面", "16141": "拉货", "11020": "志", "9008": "动能", "9010": "北部", "9012": "千三", "9013": "半天", "9014": "原地", "14266": "大乔", "13905": "芙蓉", "9015": "反思", "9016": "发热", "15203": "抢滩", "9019": "后人", "15424": "简短", "9020": "吴秀波", "9023": "团结", "9024": "坚定", "9397": "炸死", "9025": "埃尔法", "9028": "备用", "16237": "气愤", "16396": "美翻", "9031": "大呼", "9032": "大灯", "12373": "墨尔本", "9034": "大王", "9036": "太极拳", "9037": "夸", "9038": "女装", "9039": "如来", "9042": "孙女", "9571": "募捐", "9045": "安阳", "11778": "不宜", "9048": "家园", "9049": "家境", "11442": "少将", "9050": "家用车", "9051": "寺庙", "9052": "小S", "15422": "等额", "9053": "小伙子", "9058": "左手", "12259": "java", "9062": "应付", "9064": "康熙", "13268": "迎宾", "14180": "凉快", "9069": "忧", "9070": "忽悠局", "9071": "恩施", "9072": "惠若琪", "9074": "执笔", "10703": "矿业", "12239": "61", "17655": "通风", "9075": "投放", "9076": "报应", "11318": "儿媳妇", "9077": "抬高", "9079": "拖拉机", "9924": "弊", "9082": "推迟", "9084": "摩擦", "9086": "新华", "14347": "弃婴", "9088": "旅游日", "10513": "原著", "16370": "答疑", "13115": "火速", "9093": "月季", "9096": "期中", "15069": "复苏", "12243": "9成", "9099": "来历", "9100": "林书豪", "10886": "光电", "9101": "模糊", "9102": "欲哭无泪", "10644": "样本", "9103": "步入", "13194": "罩", "9104": "母子", "9106": "汤", "9111": "流失", "11085": "气死", "13185": "索要", "9112": "流转", "9113": "温情", "9115": "湖南省", "12028": "死去", "9116": "满脸", "9117": "滴滴打车", "9118": "潜伏", "9119": "灰灰", "9123": "燃爆", "9125": "猛烈", "9127": "生化", "9130": "由来", "9131": "电量", "9133": "痛苦", "9135": "白百", "9136": "白鹿原", "9137": "盆栽", "9138": "相反", "9975": "杜甫", "9140": "看哭", "9143": "离任", "9144": "种类", "9145": "科技感", "9147": "筷", "11031": "成绩单", "9148": "精髓", "9149": "绅士", "10820": "100倍", "9150": "综述", "9152": "网速", "9153": "群体", "9154": "而已", "9155": "聊城", "11998": "显现", "9156": "肥", "9157": "脸色", "15789": "九十", "9158": "自助", "9161": "艺考", "16300": "王一博", "12932": "大举", "9162": "苏醒", "9163": "草书", "9164": "薛之谦", "9166": "补丁", "9167": "补救", "9168": "见面会", "10540": "坚强", "9169": "规律", "9174": "败血症", "12311": "凯撒", "15770": "世家", "9175": "赌局", "9177": "起底", "9178": "超神", "9179": "足以", "9180": "足协杯", "9181": "路况", "13697": "战斗群", "9182": "躲过", "9183": "轮换", "13171": "稀缺", "9185": "还给", "12857": "傻分", "9186": "进度", "13887": "缓慢", "9187": "退款", "15060": "塑造", "9190": "邮件", "12184": "通胀", "9197": "防灾", "12409": "学堂", "9199": "雅思", "9201": "霍华德", "9202": "面纱", "10179": "厂", "9203": "项链", "9204": "预警", "11989": "新帅", "10202": "围堵", "9209": "飘香", "9210": "饿", "9211": "首创", "9213": "魏", "9214": "鸿雁", "9219": "1点", "12172": "边上", "12784": "DNF十", "9220": "2016", "9223": "68", "9225": "83", "10584": "引援", "9911": "工行", "9230": "EXO", "9231": "P图", "13589": "图案", "9232": "S级", "11060": "整天", "9234": "iPhoneX", "10192": "各方", "9236": "一世", "15090": "奢侈品", "9237": "一口气", "9238": "一步到位", "15196": "抓狂", "9240": "中式", "9241": "中级", "13238": "识", "9243": "九江", "9245": "交锋", "9247": "仅次于", "9248": "从没", "10044": "莫里斯", "14257": "城乡", "9846": "减产", "9249": "仔细", "9251": "休赛期", "9252": "伤病", "11896": "太行山", "9255": "作秀", "9256": "佳纯", "11665": "观音", "9259": "修养", "10991": "帝师", "9261": "倚", "9262": "停业", "9263": "儒家", "9264": "先机", "9268": "兵力", "9269": "养眼", "9271": "冬天", "9273": "几点", "9275": "出彩", "9276": "分成", "16463": "评出", "9278": "刘备", "9279": "刘昊然", "9280": "剖析", "9281": "力帆", "9283": "千岁", "9284": "午间", "9285": "华中", "9286": "华尔街", "9287": "华润", "9288": "单挑", "9290": "历代", "9291": "双枪", "9293": "发送", "9294": "台车", "14756": "雕刻", "9296": "合规", "9298": "同一个", "9300": "周二", "9301": "周公", "9303": "哭成", "9304": "商圈", "9305": "嚣张", "14258": "基站", "9306": "团长", "9307": "均衡", "9308": "堪忧", "13118": "灾害", "9309": "墓", "11676": "路口", "9312": "大好", "9317": "夫", "14951": "保罗·乔治", "9318": "奈良", "9319": "奢侈", "9320": "宁德", "9321": "安东尼", "9326": "少女感", "9794": "1-4月", "9329": "就餐", "11261": "999", "9330": "尹", "9331": "师团", "9332": "广东省", "13833": "甘", "15501": "蛟龙", "9336": "开火", "13304": "集装箱", "9337": "开门", "14011": "青松", "9340": "张家口", "9341": "张怡宁", "14647": "蛋价", "9343": "张馨予", "9344": "心仪", "9345": "忍者", "9349": "承受", "9351": "排水量", "9352": "推行", "9356": "收割机", "14606": "网警", "10791": "闪亮", "9359": "收集", "9360": "攻", "16344": "矿泉水", "9361": "文档", "15194": "手镯", "9362": "方舟", "9363": "春光", "9365": "晚报", "13381": "GMB", "14438": "朝秦暮楚", "9368": "有时", "13572": "周线", "9369": "杀进", "9372": "来得及", "9373": "柱", "9374": "案件", "9375": "榆林", "9376": "歌声", "14269": "大厨", "9377": "止步", "9378": "正好", "9379": "正宗", "9380": "民主", "9387": "泛滥成灾", "14903": "两江", "9390": "海湾", "13615": "好似", "9392": "涉", "9394": "游人", "14948": "侧面", "9395": "澄清", "9396": "火影", "12507": "智障", "9399": "煤", "9403": "特赦", "10397": "钟汉良", "9404": "犹太人", "14352": "徒手", "9405": "犹如", "9413": "盛会", "14067": "89", "17194": "换证", "9414": "直视", "9415": "相处", "9417": "看望", "16630": "1.8万", "11441": "小青", "9418": "真情", "9419": "石原", "9420": "研墨", "9422": "神户", "9423": "秀才", "9424": "秋水", "9426": "秸秆", "9428": "突围", "12710": "鄙视", "9429": "第十四", "9430": "筹码", "9433": "索赔", "12878": "出息", "13725": "措", "9438": "结尾", "16227": "武则天", "9439": "绝版", "10815": "黎巴嫩", "9441": "美岐", "9442": "老太", "9443": "老版", "9447": "自古", "9452": "芒果", "9454": "莅临", "9455": "落魄", "9456": "葡萄牙", "9458": "血拼", "11362": "变局", "9505": "马健", "9460": "观", "9852": "动向", "9463": "解题", "9464": "许家印", "11117": "盯", "9466": "评委", "13455": "代工", "9467": "诈骗", "9468": "词汇", "14813": "2013", "15254": "新游", "9472": "豪华车", "9475": "贾玲", "9477": "赛车", "9478": "赞美", "9483": "连任", "9484": "速递", "9486": "遗体", "9487": "遭袭", "10748": "议员", "15544": "越战", "11486": "成盒", "9488": "邓紫棋", "9491": "镇江", "9492": "阿", "14492": "流向", "9495": "霍建华", "11498": "按时", "9499": "领涨", "9500": "颇", "9503": "馒头", "9864": "原本", "9504": "首先", "14341": "废铁", "9506": "驻军", "9509": "黑龙江省", "9511": "'", "15875": "分饰", "16197": "晴", "9512": "1.6T", "9513": "170", "9514": "2016年", "9515": "23日", "14354": "快捷", "9516": "250", "11818": "偷走", "9520": "5.56", "9522": "5A级", "11426": "宝里", "9531": "SUP", "9523": "6号", "9529": "F-35", "9530": "OTA", "9535": "一塌糊涂", "9536": "七月", "9539": "专注", "9541": "严厉", "9542": "中队", "9543": "主权", "9544": "之上", "17605": "赚翻", "9545": "互", "9547": "人手", "10893": "冲绳", "9549": "伊万卡", "13124": "燃油", "10388": "送上", "9550": "伊利", "9551": "传送", "10860": "主导", "9552": "何种", "9553": "依靠", "10022": "筷子", "9556": "偿还", "9558": "共建", "11988": "新宠", "13673": "强奸", "9561": "减速", "9563": "出走", "9567": "制服", "9572": "匕首", "9573": "十佳", "9574": "十多", "9576": "历届", "10510": "卑别", "9579": "口诀", "9580": "古墓", "13229": "表面", "9581": "古天乐", "16774": "二百", "9583": "叶子", "12839": "亲近", "13256": "跳槽", "9584": "吃醋", "17323": "河南人", "9585": "吉利博", "9586": "告知", "9587": "周迅", "15514": "要好", "9589": "和解", "14896": "不符", "9590": "咯", "9592": "唐诗", "12494": "整编", "9594": "国度", "9609": "妩媚", "9596": "坐等", "9600": "外面", "14838": "G战队", "9601": "多功能", "9602": "夜晚", "9603": "大亏", "14724": "醒目", "9854": "勋章", "12261": "一两", "12505": "显示屏", "9604": "大额", "9606": "天水", "9610": "姚晨", "9611": "姨夫", "9613": "婴儿", "9614": "孙雯", "14849": "POS机", "9616": "宛如", "9679": "曲线", "14887": "三清山", "9618": "实弹", "14759": "雷克萨斯ES", "9619": "宰客", "9621": "小动作", "9622": "小朋友", "9623": "小组", "9624": "尺", "9625": "尼泊尔", "13671": "弯", "9626": "尽管", "9627": "展出", "9629": "崩", "9908": "封神", "9632": "希尔", "9633": "希金斯", "9634": "带有", "13433": "临夏州", "9636": "廉价", "9637": "延迟", "9638": "开班", "14696": "边疆", "9639": "强强", "16842": "全套", "9645": "恶魔", "9646": "悠悠", "9648": "悼念", "9650": "惹怒", "9651": "愿望", "17144": "悲伤", "9652": "手刹", "16541": "重灾区", "9654": "扮演者", "9655": "承载", "10782": "郭敬明", "9656": "抓拍", "9657": "抖动", "11622": "红裙", "9658": "折磨", "9743": "行李", "9659": "抢购", "9660": "捞金", "13928": "血泪", "9661": "探讨", "9662": "推特", "9663": "掩", "9664": "提交", "9764": "转化", "14510": "灭国", "9665": "攻克", "12658": "荷尔蒙", "9669": "斩", "9670": "斩首", "13737": "改掉", "9678": "暴富", "15991": "头目", "9680": "月供", "12508": "替换", "9681": "有序", "15500": "蛇口", "15930": "后天", "9684": "李书福", "9687": "极其", "9690": "某个", "9691": "校庆", "9693": "梅根", "16097": "怒喷", "9697": "比武", "10372": "诗龄", "9698": "民生", "9955": "提议", "9699": "氛围", "9701": "汪峰", "9703": "活该", "9704": "清除", "9706": "灭亡", "9707": "点点", "12415": "对应", "16055": "帕奎奥", "9708": "燃油车", "11547": "桥通", "9709": "物", "9710": "独", "9711": "猛涨", "9712": "猜测", "9715": "甲", "12607": "种出", "9717": "直通车", "9719": "短文", "9721": "神似", "9723": "禁毒", "9726": "秋天", "9728": "称呼", "9730": "给予", "9731": "缘分", "9733": "羞涩", "9735": "自招", "12468": "抛", "9736": "致死", "9737": "舌尖", "9742": "蚂蚁金", "9744": "行测", "13002": "总队", "9747": "评论员", "9748": "诗经", "14081": "QX", "9753": "赌王", "9757": "走强", "11821": "八万", "12143": "艾弗森", "9758": "起亚", "17052": "容貌", "9759": "起跑线", "9760": "超级大国", "13083": "楼下", "9765": "转弯", "15215": "拿去", "9766": "运作", "11304": "人质", "9768": "还债", "9769": "追忆", "13437": "主将", "9770": "追逐", "9771": "道出", "9773": "配方", "9779": "镑", "9780": "闪现", "9782": "队史", "9795": "1.29亿", "9796": "2008年", "16960": "国货", "9797": "2015年", "9801": "2日", "9802": "95%", "9803": "97", "9809": "ps", "9813": "上岸", "9814": "下乡", "9815": "下行", "11462": "建造师", "17128": "心经", "9816": "下载量", "9817": "不孕", "9818": "与其", "15320": "毛晓彤", "15174": "必知", "9819": "东亚", "11801": "人选", "9820": "丧尸", "14556": "看成", "9821": "中产", "9824": "临终", "9827": "乐天", "9828": "二者", "16685": "F-35B", "9831": "传销", "9833": "俄罗斯人", "9835": "做样子", "9837": "光纤", "9838": "全村", "10531": "哥们", "9839": "其他人", "9841": "养护", "15217": "挤爆", "9848": "击毙", "11398": "多元化", "9849": "别人家", "9851": "功", "9859": "华南", "9861": "卢靖姗", "12521": "校服", "9862": "印度洋", "12306": "农庄", "16572": "雅居乐", "9863": "即日", "9865": "取名", "9866": "受阻", "9867": "变更", "9868": "变相", "9871": "名下", "14810": "2-0", "9872": "后代", "9873": "后裔", "9874": "吸金", "9875": "吻戏", "9877": "周评", "13100": "泸州", "15357": "特别是", "9878": "四季", "9879": "四轮", "9880": "回怼", "9881": "图书", "9884": "壕", "9889": "夜里", "14637": "莲花", "15267": "昂克赛拉", "16244": "沉", "9891": "大婚", "10804": "风流", "15616": "附属", "9892": "大宗", "9893": "天河", "9894": "奇妙", "9898": "婷下", "9902": "宝藏", "15281": "服软", "9903": "实测", "9906": "容量", "15218": "挥", "9907": "寓意", "9909": "少林寺", "9915": "帮主", "9916": "年审", "9917": "并举", "9918": "幸存者", "12665": "螺旋桨", "9920": "建业", "10818": "0:0", "9926": "张雨绮", "9928": "归还", "9931": "心声", "15776": "丫鬟", "9932": "急速", "9933": "性别", "16548": "锦囊", "9934": "总体", "11115": "监会", "15966": "坦诚", "11679": "转业", "9935": "总额", "11898": "妆容", "14188": "刚好", "9936": "悉尼", "9937": "悬崖", "9938": "愣住", "14837": "Gala", "9939": "战K", "9941": "戴安娜", "9942": "所得税", "11208": "重器", "9943": "手雷", "16360": "空头", "9945": "打理", "9946": "扫描", "9949": "招标", "10722": "耐", "15853": "养车", "9950": "振奋", "16581": "面孔", "9951": "捆绑", "9954": "控卫", "12533": "此联", "9959": "改为", "9961": "教父", "9994": "淑女", "9967": "暴走", "9968": "月亮", "9971": "服气", "9973": "李亚鹏", "9977": "杰出", "9980": "株洲", "9982": "榜样", "11471": "影院", "9983": "歌颂", "9985": "此时", "14345": "异域", "15220": "换取", "9987": "毒药", "9989": "治病", "9991": "沿途", "13624": "宅", "12206": "随机", "9992": "海景房", "9995": "潜在", "9996": "火焰", "10002": "狂人", "10004": "献唱", "10006": "田门", "10011": "白马", "10012": "百里", "10013": "盛装", "10014": "盯上", "10595": "戴维斯", "14387": "拍下", "13565": "吞", "10015": "相逢", "10017": "瞧不起", "14056": "3000亿", "10018": "确", "12247": "G500", "10020": "神经", "10023": "红薯", "10024": "终点", "10025": "终究", "10028": "统治力", "10029": "维和", "10030": "绿城", "10031": "缅怀", "13612": "奏琴", "10033": "编辑", "10034": "翅膀", "10037": "肉鸡", "10040": "芍", "10042": "范儿", "10045": "莹盈", "10046": "蓄势待发", "16196": "普通话", "10047": "蔓延", "16161": "接盘侠", "10048": "要素", "10050": "解放", "10051": "许", "14185": "出资", "10052": "设定", "10495": "内阁", "10053": "课外", "14439": "朝阳", "10055": "豪华版", "10056": "货源", "13226": "蝉联", "10057": "贬值", "10058": "赔付", "10059": "起航", "11397": "复读", "16047": "岂料", "10061": "身着", "14232": "吴奇隆", "10062": "车臣", "13849": "着力", "10063": "较量", "17665": "重载", "10064": "辍学", "10065": "辖区", "10066": "过度", "10067": "返回", "15448": "缭绕", "10068": "还好", "10070": "逃跑", "10074": "里皮", "10075": "重卡", "11189": "赌约", "14728": "重重", "10078": "铠", "10080": "销毁", "10082": "长租", "13620": "娶妻", "10084": "间谍", "10085": "防线", "10087": "险胜", "12883": "劝说", "10088": "难点", "10089": "露出", "10090": "靳东", "10093": "预备", "10096": "飞虎", "11122": "短裤", "10097": "饭桌", "13331": "高性能", "10098": "驾车", "14418": "旅行者", "10099": "骑马", "10101": "高山", "10103": "高送转", "10104": "鸿", "15432": "红旗H5", "10105": "鹄志", "10107": "黑白", "13148": "病句", "10108": "鼻祖", "10112": "26万", "10113": "318", "12082": "白马股", "10115": "66", "10116": "70后", "12792": "QM", "10117": "81", "13313": "霍", "10119": "91", "10120": "AD", "10121": "AliOS", "10123": "E级", "10581": "座车", "10124": "GTA5", "11376": "哪款", "10125": "M5", "10127": "Q5", "10128": "TA", "15027": "叹息", "10129": "dota", "17156": "憔悴", "10130": "facebook", "16407": "背影", "10132": "一话", "10133": "三丰", "10134": "三支一扶", "10135": "上厕所", "10137": "不妨", "10138": "中南", "13004": "悍马", "10140": "书香", "10141": "事后", "10142": "亩产", "10147": "体罚", "12398": "奖项", "10149": "作出", "10150": "侄子", "10151": "供给", "10155": "健身房", "10156": "克", "10158": "公正", "17668": "量", "10159": "共和国", "16362": "立项", "10161": "冤枉钱", "10162": "几分", "10164": "函数", "12491": "攒", "10165": "分化", "10167": "切换", "10169": "删档", "10172": "剪影", "10175": "十六", "12518": "松涛", "10180": "压枪", "10182": "原班人马", "10183": "县级", "13132": "特意", "10186": "发光", "13167": "租车", "10188": "可用", "17639": "连年", "10189": "台阶", "17489": "美刀", "10195": "后者", "17619": "车主们", "10196": "吹牛", "10197": "周围", "10203": "国债", "10402": "防长", "10204": "国考", "10206": "地标", "10207": "场外", "10210": "增值", "10211": "外来", "12470": "抽签", "10212": "外表", "10213": "大兵", "10214": "大戏", "10216": "奇瑞瑞虎", "10218": "奥沙利文", "10222": "审美", "10223": "宣告", "10226": "小枣", "14031": "骑兵", "10227": "屠杀", "13431": "严控", "10229": "常态", "12148": "虫族", "10232": "廖英强", "10233": "开到", "10235": "开建", "17457": "竖起", "10237": "弊端", "12448": "忆", "10238": "张大仙", "10239": "德云色", "10240": "心碎", "17320": "汪小菲", "10242": "患者", "10243": "悬挂", "11603": "神雕侠侣", "10245": "情节", "11834": "列装", "14713": "逛街", "10246": "成功率", "10247": "战败", "10249": "手稿", "17577": "褚", "10250": "手绘", "10251": "打服", "10253": "扩展", "10254": "扳回", "10255": "扶", "13672": "弹奏", "15385": "盐湖", "10256": "折扣", "10257": "拜托", "12751": "鲁尼", "10260": "捷克", "10261": "掉渣", "10266": "支柱", "11879": "复合", "16737": "下水道", "10269": "新乡", "10270": "新郎", "10271": "日内", "10273": "时节", "10275": "最初", "10276": "月销", "10277": "朗诵", "10280": "板凳", "10281": "枪支", "10283": "校方", "10284": "核武", "11697": "重逢", "10286": "梦回", "10287": "棋", "10289": "步步高", "10292": "死敌", "14950": "俘获", "10293": "比拼", "10294": "气象", "10295": "水乡", "10296": "汕头", "15507": "表姐", "14261": "外包", "10299": "法国杯", "14386": "担责", "10304": "流星", "10305": "浑身", "10308": "海里", "10314": "湖泊", "10316": "演变", "10318": "烟花", "10319": "烧脑", "11787": "中铁", "14740": "阮经天", "15651": "鳝长", "11755": "Beta", "10320": "热捧", "10322": "煤炭", "10324": "爹", "10327": "环节", "10328": "现今", "16760": "久违", "10330": "甜馨", "10331": "用到", "10333": "疏通", "10334": "的确", "15058": "基金会", "10338": "科大", "10339": "穿过", "10341": "简报", "10344": "粉", "17054": "宿敌", "10347": "缘", "11151": "缩量", "11728": "鱼雷", "10348": "网盘", "15336": "清明", "10349": "网签", "10350": "罗牛山", "10351": "美方", "10352": "美术馆", "14977": "养老险", "16552": "长度", "10354": "老赖", "14103": "不小心", "10355": "脑袋", "13380": "GL8", "10361": "融", "10362": "融创", "10363": "行书", "10364": "行列", "10365": "衣品", "13315": "青荷琴", "15122": "对准", "10366": "西宁", "10367": "角", "17182": "抢戏", "14249": "回首", "16489": "跑分", "10374": "谭", "12535": "死活", "10377": "贵州省", "10380": "赶上", "16943": "周杰", "16923": "古今", "10381": "踏板", "10382": "身为", "12799": "Xbox", "10383": "过期", "12850": "使者", "10385": "远大", "10386": "远嫁", "13379": "EA", "10389": "途锐", "10391": "遵义", "10392": "郭富城", "10393": "郭沫若", "16575": "零钱", "10394": "重心", "10395": "重申", "13082": "棚户区", "10396": "金正恩", "15554": "转折点", "10401": "长发", "10403": "阿娇", "10404": "阿特兹", "11315": "假货", "10405": "附中", "14937": "企稳", "11947": "惧怕", "10407": "随手", "10408": "随着", "10409": "雄安", "16567": "除草剂", "10410": "雨水", "10411": "雨航", "10418": "顺序", "17057": "寒门", "10419": "预热", "10421": "领投", "10422": "领海", "15146": "师父", "10428": "香格里拉", "12040": "泪如雨下", "10429": "马化", "11390": "域名", "10432": "龙虾", "14960": "做主", "10433": "05月", "10434": "100多", "11467": "强者", "10436": "18日", "10438": "2018.5.9", "10439": "2分", "14723": "酷帅", "10440": "40%", "10441": "4:0", "10442": "7%", "10564": "密度", "10445": "F135", "10446": "FC", "11892": "大罗", "10448": "KTV", "11183": "读者", "13191": "网点", "10450": "M416", "10452": "SE", "10455": "iPhone8", "15643": "飞行器", "10456": "of", "10457": "pick", "10459": "上限", "10461": "世", "10463": "东", "10464": "东营", "10465": "丧命", "10468": "乖乖", "10469": "乘务员", "10472": "云南省", "14858": "Ti8", "10473": "交通部", "10474": "亲身", "10475": "人次", "10476": "任命", "10578": "常德", "10477": "伊藤", "10478": "伙食", "10479": "作弊", "10480": "依霖", "12632": "罗布泊", "10483": "俄方", "10484": "保值率", "10487": "充值", "10494": "内乱", "10496": "净化", "10498": "分歧", "17545": "茶卡", "10499": "创下", "15106": "安置房", "10500": "剁手", "10501": "前世今生", "12994": "当然", "10502": "前沿", "10503": "剑魂", "10504": "副业", "10508": "包揽", "10514": "参展", "10516": "反恐", "14987": "凶猛", "10517": "反抗", "11200": "迈向", "10518": "反派", "10519": "受害者", "10524": "吸烟", "10526": "周五", "10527": "味品", "16805": "伤感", "10530": "品位", "15391": "相册", "10532": "回击", "10533": "国籍", "10535": "在列", "10536": "在校", "10537": "地气", "10542": "塞尔达", "10545": "大幅度", "10546": "大开", "10547": "大开眼界", "10548": "天爱", "10549": "失聪", "10554": "婚纱照", "10556": "字帖", "10558": "学渣", "10563": "宪法", "10565": "射门", "10566": "小丑", "14666": "让路", "10575": "帐篷", "10576": "席卷", "12455": "惬意", "10579": "平静", "10580": "幸福感", "10582": "开会", "10583": "开头", "10585": "引流", "11012": "彩色", "10587": "影子", "10592": "惨不忍睹", "10596": "房前", "10597": "手册", "10598": "手感", "10600": "投标", "10602": "报销", "10604": "拆除", "10605": "拍出", "10606": "拓宽", "10608": "挥手", "12224": "麻城", "10609": "换挡", "10610": "掌控", "10611": "掏", "17726": "饰", "11779": "不朽", "12623": "紧随", "10612": "排除", "10758": "跑跑", "10613": "搅局", "16142": "拍吻戏", "10616": "收拾", "11214": "错字", "10618": "敌军", "12036": "沧州", "10620": "文案", "10621": "斥资", "10622": "新东方", "10623": "方子", "10624": "旁", "10625": "旗", "10626": "日元", "10627": "旭", "10633": "有偿", "10634": "有线", "14368": "打中", "10635": "朱之文", "10636": "机电", "12471": "拆解", "10637": "条例", "10638": "来源", "10639": "枪击案", "10641": "枪手", "10643": "标准化", "10648": "欺凌", "10649": "正是", "13009": "愣", "15532": "购票", "10652": "毁容", "10682": "猛禽", "10656": "汉中", "10657": "江山", "10663": "波士顿", "10665": "浪潮", "10667": "清远", "10668": "港元", "10669": "源头", "10671": "炸锅", "17360": "清秀", "10674": "爱豆", "17361": "渝", "10675": "特价", "10676": "特币", "10679": "狂野", "12189": "重获", "10683": "率队", "10684": "王兴", "10689": "电视机", "11141": "红五月", "10690": "男士", "17216": "政务", "10691": "画卷", "10692": "疫苗", "10693": "登山", "10696": "盐城", "14827": "525", "13586": "国四", "10697": "盖帽", "10699": "相伴", "10700": "相思", "16493": "车外", "14040": "鸣枪", "10701": "看涨", "10704": "碎", "13533": "医保", "10705": "神迹", "10706": "福田", "10709": "科沃兹", "10712": "竞彩", "10713": "竞标", "11045": "捐助", "10833": "CR929", "10714": "笑点", "10716": "精明", "10717": "绍兴", "10719": "绝活", "10721": "美观", "11396": "处在", "10723": "耐心", "12822": "中欧", "10724": "聊聊", "10725": "背着", "11104": "特长", "14265": "夜色", "10727": "胳膊", "10728": "舒适版", "10729": "舰载", "13151": "百科", "10731": "花花不语", "10732": "茶品", "10733": "茶香", "10735": "荣登", "10737": "萌妻", "10738": "落尽", "10739": "董璇", "10741": "蛋", "15379": "画像", "10743": "袁隆平", "10745": "触手", "10750": "误会", "10751": "财年", "10752": "走心", "10754": "起源", "10755": "越军", "12379": "大同市", "10756": "跆拳道", "10757": "跑去", "15509": "衰败", "12441": "强敌", "10760": "车头", "10762": "转正", "10764": "辐射", "10765": "过关", "10766": "近代", "10767": "返乡", "10768": "这块", "10770": "连环画", "10771": "迹象", "10773": "退改签", "10776": "通输", "16090": "德系车", "10777": "逝世", "10778": "逼平", "14690": "转给", "15880": "初学者", "10779": "遮挡", "15490": "著作", "10780": "邓文迪", "10781": "邢台", "10785": "酷路泽", "15449": "网易云", "14865": "hold", "10787": "重量级", "11487": "房主", "12869": "兼", "14208": "千米", "16334": "省力", "10788": "金句", "10789": "银河", "17658": "遗传", "10790": "银行业", "10946": "哲学家", "10797": "震中杯", "10799": "霍福德", "10800": "青海湖", "13534": "十七", "10801": "韩庚", "10803": "预告片", "14276": "大闹", "10805": "食神", "10806": "饮食", "10807": "首曝", "11051": "描述", "10809": "马夏尔", "10810": "驾驶员", "11692": "郁闷", "10814": "黄忠", "15876": "划时代",
[...]
